{"<unk>": 0, "<s>": 1, "</s>": 2, "\u2583": 3, "<sep>": 4, "<pad>": 5, "<mask>": 6, "<eod>": 7, "\u2581": 8, ",": 9, "\u2582": 10, "\u2581\u7684": 11, "\u3002": 12, "\u3001": 13, "\u2581\u4e86": 14, "\u2581\u662f": 15, "\u2581\u6211": 16, ":": 17, "\u2581\u5728": 18, "\u2581\u6709": 19, "\u2581?": 20, "\u2581\u548c": 21, ")": 22, "\u2581(": 23, "\u2581\u4e0d": 24, "\u2581\u8fd9": 25, "\u2581\u4e5f": 26, "\u2581\u4f60": 27, "\u2581\u4ed6": 28, "\u2581\u5c31": 29, "\u2581\u90fd": 30, "\u2581\u4eba": 31, "\u201c": 32, "\u4e2a": 33, "\u201d": 34, "\u662f": 35, "\u2581.": 36, "\u2581\u4e3a": 37, "\u2581\u5e74": 38, "\u2581\u5bf9": 39, "\u2581\u4e00\u4e2a": 40, "\u2014": 41, "\u2581\u4e0a": 42, "\u2581\u8bf4": 43, "\u2581\u4e00": 44, "\u2581!": 45, "\u2581\u5f88": 46, ";": 47, "\u2581-": 48, "\u2581\u770b": 49, "\u300b": 50, "\u2581\u4f46": 51, "\u300a": 52, "\u25811": 53, "\u2581\u81ea\u5df1": 54, "\u2581\u4e2d": 55, "\u2581\u4e0e": 56, "\u2581\u8fd8": 57, "\u2581...": 58, "\u2581\u800c": 59, "\u2581\u4e4b": 60, "\u2581\u4f1a": 61, "\u4eba": 62, "\u2581\u597d": 63, "\u2581\u53ef\u4ee5": 64, "\u4e8e": 65, "/": 66, "\u2581\u591a": 67, "\u5230": 68, "\u2581\u5927": 69, "\u79cd": 70, "\u2581\u8981": 71, "\u2581\u7b49": 72, "\u6709": 73, "\u4e3a": 74, "\u25812": 75, "\u2581\u88ab": 76, "\u2581\u6ca1\u6709": 77, "\u2581\u4ec0\u4e48": 78, "\u4eec": 79, "\u2581\u80fd": 80, "\u2581\u5230": 81, "\u2581\u90a3": 82, "\u2581\u505a": 83, "\u2581\u60f3": 84, "\u2581\u6700": 85, "\u2581\u5979": 86, "\u2581\u53ea": 87, "\u2581\u5c31\u662f": 88, "\u5b50": 89, "\u9053": 90, "\u2581\u53bb": 91, "\u6765": 92, "\u25813": 93, "\u2581\u95ee\u9898": 94, "\u2581\u6708": 95, "=": 96, "\u2581\u5e76": 97, "\u2581\u4e2d\u56fd": 98, "\u2581\u4e0b": 99, "\u6027": 100, "\u2581\u6211\u4eec": 101, "\u2581\u5c0f": 102, "\u2581\u5f53": 103, "\u2581\u4ee5": 104, "\u2581\u66f4": 105, "\u2581\u6ca1": 106, "\u2581\u8ba9": 107, "\u2581\u7528": 108, "\u2581\u540e": 109, "\u56e0\u4e3a": 110, "\u2581\u5de5\u4f5c": 111, "\u2581\u53ef": 112, "\u5bb6": 113, "\u2581\u4ece": 114, "\u2581\u5982\u679c": 115, "\u2581\u7ed9": 116, "\u2581\u53c8": 117, "\u751f": 118, "\u2581\u65f6\u5019": 119, "\u8fd8\u662f": 120, "\u2581\u77e5": 121, "\u2581\u89c9\u5f97": 122, "\u7136": 123, "\u2581\u4e0d\u662f": 124, "\u8005": 125, "\u2581\u628a": 126, "\u4f1a": 127, "\u25814": 128, "\u2581\u73b0\u5728": 129, "\u2581\u8fc7": 130, "\u2581\u6216": 131, "\u7ae0": 132, "\u2581\u5427": 133, "\u4ec0\u4e48": 134, "\u2581\u5df2": 135, "\u7ecf": 136, "\u8981": 137, "\u2581\u65f6": 138, "\u4e86": 139, "\u2581\u600e\u4e48": 140, "\u2581\u51fa": 141, "\u6cd5": 142, "\u2581\u559c": 143, "\u597d": 144, "\u4e0a": 145, "\u70b9": 146, "\u25815": 147, "\u2581\u6240\u4ee5": 148, "\u2581\u554a": 149, "\u2581\u5417": 150, "\u6b22": 151, "\u540e": 152, "\u2581\u9ad8": 153, "\u91cc": 154, "\u2581\u672c": 155, "\u8bdd": 156, "\u2581\u7740": 157, "\u2581\u5f88\u591a": 158, "\u2581\u5e94": 159, "\u4e14": 160, "\u2581\u6765": 161, "\u2581\u4e09": 162, "\u2581\u8fd9\u6837": 163, "\u2581\u5730": 164, "\u2581\u5c06": 165, "\u5927": 166, "\u2581\u5982\u4f55": 167, "\u2581\u53d1\u5c55": 168, "\u51fa": 169, "\u2581\u65b0": 170, "\u2581\u518d": 171, "\u2581\u53ca": 172, "\u00b7": 173, "\u2581\u53ef\u80fd": 174, "\u2581\u7531": 175, "\u8be5": 176, "\u9762": 177, "\u65f6": 178, "\u2581\u65e5": 179, "\u2581\u603b": 180, "\u2581\u6bcf": 181, "\u6b21": 182, "]": 183, "[": 184, "\u5f0f": 185, "\u957f": 186, "\u2581\u7b2c": 187, "\u5916": 188, "\u2581\u516c\u53f8": 189, "\u2581\u7b2c\u4e00": 190, "\u2581\u7ba1\u7406": 191, "\u2581\u7136\u540e": 192, "\u2581\u65f6\u95f4": 193, "\u533a": 194, "\u2581\u5f00\u59cb": 195, "\u2581\u5176": 196, "\u7740": 197, "\u258110": 198, "\u5316": 199, "\u2581\u5462": 200, "\u4e9b": 201, "\u25816": 202, "\u2581\u9700\u8981": 203, "\u2581\u751f\u6d3b": 204, "\u95f4": 205, "\u2581\u6216\u8005": 206, "\u2581\u8ddf": 207, "\u2581\u6253": 208, "%": 209, "\u90e8": 210, "\u6210": 211, "\u2581\u611f\u89c9": 212, "\u2581\u5b83": 213, "\u4e66": 214, "\u4e0b": 215, "\u2581\u6280\u672f": 216, "\u2581\u4e3b\u8981": 217, "\u524d": 218, "\u2581\u91cc": 219, "\u2581\u6bd4\u8f83": 220, "\u2581\u4f5c": 221, "\u8282": 222, "\u2581\u771f\u7684": 223, "\u2581\u5927\u5bb6": 224, "\u53bb": 225, "\u2581\u4e0d\u80fd": 226, "\u2581\u4e13\u4e1a": 227, "\u2581\u6240": 228, "\u2581\u4e00\u4e9b": 229, "\u2581\u57fa\u672c": 230, "\u2581\u90a3\u4e48": 231, "\u2581\u5f97": 232, "\u2581\u7814\u7a76": 233, "\u2581\u4e0d\u4f1a": 234, "\u2581\u4f01\u4e1a": 235, "\u529b": 236, "\u884c": 237, "\u2581\u5403": 238, "\u2581\u6bd4": 239, "\u2581\u56fd\u5bb6": 240, "\u2581\u524d": 241, "\u673a": 242, "\u2581\u4ea7\u54c1": 243, "\u2581\u4e8c": 244, "\u89e3": 245, "\u2581\u624d": 246, "\u8fc7": 247, "\u7ebf": 248, "\u65b9": 249, "\u2581\u8fdb\u884c": 250, "~": 251, "\u2581\u4fe1\u606f": 252, "\u2581\u5176\u4ed6": 253, "\u2581\u592a": 254, "\u2581\u65e0": 255, "\u2581\u6e38\u620f": 256, "\u8bf4": 257, "\u540d": 258, "\u5929": 259, "\u2581\u4f7f\u7528": 260, "\u4e2d": 261, "\u2581\u670d\u52a1": 262, "\u2581\u4e70": 263, "\u2581\u8fd9\u4e9b": 264, "\u5c11": 265, "\u25818": 266, "\u25817": 267, "\u2581\u5982": 268, "\u2581\u5b66\u6821": 269, "\u2581\u5176\u5b9e": 270, "\u5ea6": 271, "\u5934": 272, "\u5668": 273, "\u2581\u4e0d\u8981": 274, "\u2581\u4e00\u76f4": 275, "\u2581\u4e00\u4e0b": 276, "\u2581\u5f00": 277, "\u2581\u4e16\u754c": 278, "\u2581\u8be5": 279, "\u2581\u5b66\u4e60": 280, "\u7c7b": 281, "\u2581\u4e00\u6837": 282, "\u6837": 283, "\u8fd1": 284, "\u5ba4": 285, "\u2581\u5374": 286, "\u5e02": 287, "\u2581\u7537": 288, "s": 289, "\u2581\u4e2a\u4eba": 290, "\u2581\u8bbe\u8ba1": 291, "\"": 292, "\u2581\u53d1\u73b0": 293, "\u2581\u60c5\u51b5": 294, "\u2581\u4e8e": 295, "\u91cf": 296, "\u2581\u5168": 297, "\u2581\u901a\u8fc7": 298, "\u2581\u627e": 299, "\u2581\u793e\u4f1a": 300, "\u2581\u670b\u53cb": 301, "\u2581\u8fd9\u4e48": 302, "\u2581\u5305": 303, "\uff5e": 304, "\u2581\u73a9": 305, "\u2581\u7b2c\u4e8c": 306, "\u2581\u4e00\u5b9a": 307, "\u2581\u7231": 308, "\u2581\u9009\u62e9": 309, "\u2581\u5185": 310, "\u671f": 311, "\u5f97": 312, "\u2581\u5973": 313, "\u4f4d": 314, "\u2581\u6700\u540e": 315, "\u2581\u7ecf\u6d4e": 316, "\u53cb": 317, "\u4e00\u8d77": 318, "\u5e74": 319, "\u2581\u91cd\u8981": 320, "\u2581\u4e8b": 321, "\u2581\u4e1c\u897f": 322, "\u2581\u5b66": 323, "\u3010": 324, "\u2581\u4e00\u822c": 325, "\u516c\u53f8": 326, "\u3011": 327, "\u2581\u8d70": 328, "\u5fc3": 329, "\u5c71": 330, "\u2581\u5206": 331, "\u6c34": 332, "\u2581\u5927\u5b66": 333, "\u2581\u5404\u79cd": 334, "\u2581\u8bf7": 335, "\u2581\u4e0d\u540c": 336, "\u2581\u867d": 337, "\u5730": 338, "\u53bf": 339, "\u4e4b": 340, "\u2581\u6587\u5316": 341, "\u2581\u4ee5\u53ca": 342, "\u7528": 343, "\u2581\u975e\u5e38": 344, "\u5e95": 345, "\u4e8b": 346, "\u5173": 347, "\u2581\u7cfb\u7edf": 348, "\u2581\u6559\u80b2": 349, "2": 350, "\u5b66": 351, "\u2581\u5e0c\u671b": 352, "\u2581\u5b69\u5b50": 353, "\u2581\u50cf": 354, "\u2581\u5f71\u54cd": 355, "\u2581\u7f8e\u56fd": 356, "\u7684": 357, "\u7ea7": 358, "\u2581\u5b66\u751f": 359, "\u2581\u540c": 360, "\u2581\u540d": 361, "\u5f00": 362, "\u2581\u522b\u4eba": 363, "\u5458": 364, "\u2581\u6210\u4e3a": 365, "\u2581\u81f3": 366, "\u2581\u56de\u7b54": 367, "\u2581\u4f7f": 368, "\u2581\u5185\u5bb9": 369, "\u2581\u53e6": 370, "\u6751": 371, "\u573a": 372, "\u591f": 373, "\u25819": 374, "\u8fb9": 375, "\u2581\u8ba4": 376, "\u2581\u5148": 377, "\u8d77\u6765": 378, "\u25810": 379, "\u2581\u56db": 380, "\u2581\u65b9\u6cd5": 381, "\u7269": 382, "\u5e08": 383, "\u258120": 384, "\u2581\u54ea\u4e9b": 385, "\u7acb": 386, "\u2581\u5176\u4e2d": 387, "\u611f": 388, "\u2581\u7279\u522b": 389, "\u2581\u8001": 390, "\u258112": 391, "\u961f": 392, "\u2581\u95ee": 393, "\u2581\u4e24": 394, "\u6761": 395, "\u2581\u5404": 396, "\u2581\u81ea": 397, "\u8eab": 398, "\u2581\u7535\u5f71": 399, "\u8def": 400, "\u6587": 401, "\u624b": 402, "\u89c1": 403, "\u60f3": 404, "\u2581\u65b9": 405, "\u2581\u6240\u6709": 406, "\u2581\u63d0\u4f9b": 407, "\u2581\u6210": 408, "\u2581\u5f20": 409, "\u2581\u6bd4\u5982": 410, "\u2581\u4e0d\u8fc7": 411, "\u2581\u4e24\u4e2a": 412, "\u2581\u540e\u6765": 413, "\u4e0d": 414, "\u2581\u5199": 415, "\u2581\u600e\u6837": 416, "\u5386": 417, "\u4e8b\u60c5": 418, "\u2581\u54ea": 419, "\u800c": 420, "\u2581\u6b64": 421, "\u2581\u6309": 422, "\u2581\u4e00\u6b21": 423, "\u5148": 424, "\u2581\u5e02\u573a": 425, "\u2581\u6c34": 426, "\u2581\u51e0": 427, "\u2581\u5730\u65b9": 428, "\u2581\u540c\u65f6": 429, "\u4f53": 430, "\u54c1": 431, "\u2581\u80fd\u529b": 432, "\u2581\u4f60\u4eec": 433, "\u2581\u7b2c\u4e09": 434, "\u2581\u542c": 435, "\u56fd": 436, "\u2581\u957f": 437, "\u2581\u9996": 438, "\u2581\u76f8\u5173": 439, "\u2581\u8c01": 440, "\u6848": 441, "\u5165": 442, "\u670b\u53cb": 443, "\u2581\u5e26": 444, "\u5f85": 445, "\u2581\u662f\u5426": 446, "\u7387": 447, "\u2581\u9879\u76ee": 448, "\u4e00": 449, "\u79ef": 450, "\u2581\u4e00\u70b9": 451, "\u2581\u76ee\u524d": 452, "\u2581\u8981\u6c42": 453, "\u2581\u56fd\u9645": 454, "\u2581\u5373": 455, "\u2581A": 456, "\u2581\u5411": 457, "\u5361": 458, "\u513f": 459, "\u2581\u8001\u5e08": 460, "\u2581\u65e5\u672c": 461, "\u2581\u4e07": 462, "\u2581\u751f\u4ea7": 463, "\u2581\u7ec4\u7ec7": 464, "\u2581\u529f\u80fd": 465, "\u2581\u5386\u53f2": 466, "\u2581\u5efa\u8bbe": 467, "\u2581\u90a3\u4e2a": 468, "\u2581\u53d8": 469, "\u8272": 470, "\u2581\u56fd\u5185": 471, "\u2581\u652f\u6301": 472, "\u2581\u51fa\u73b0": 473, "\u2581\u57fa\u7840": 474, "\u2581\u62ff": 475, "\u8f66": 476, "\u53e3": 477, "\u2581\u4e3b": 478, "\u5236": 479, "\u5c40": 480, "\u610f": 481, "\u672c": 482, "\u2581\u738b": 483, "\u258111": 484, "\u2581\u4e94": 485, "1": 486, "\u4e4e": 487, "\u2581\u76f4\u63a5": 488, "\u5728": 489, "\u2581\u4ee5\u540e": 490, "\u2581\u53eb": 491, "\u65af": 492, "\u4efb": 493, "\u4e0d\u662f": 494, "\u2581\u65b9\u9762": 495, "\u2581\u7ed3\u679c": 496, "\u6c14": 497, "\u2581+": 498, "\u2581\u5173\u7cfb": 499, "\u2581\u624b\u673a": 500, "\u5546": 501, "\u2581\u4f53\u9a8c": 502, "\u2581\u4ee5\u4e0a": 503, "\u2581\u94b1": 504, "\u7c73": 505, "\u2581\u73af\u5883": 506, "\u2581\u5929": 507, "\u2581\u5b89\u5168": 508, "\u8bb8": 509, "\u2581B": 510, "\u2581\u7f51\u7edc": 511, "\u2581\u6b63": 512, "\u5fb7": 513, "\u62ec": 514, "\u5904": 515, "\u2581\u539f": 516, "\u6765\u8bf4": 517, "\u2581\u674e": 518, "\u2581\u77e5\u4e4e": 519, "\u2581\u5317\u4eac": 520, "\u5c14": 521, "\u8d77": 522, "\u300d": 523, "\u2581\u653e": 524, "\u79f0": 525, "\u5b57": 526, "\u57ce": 527, "\u2581\u8d1f\u8d23": 528, "\u7247": 529, "\u52a0": 530, "\u7167": 531, "\u2581\u5b8c\u5168": 532, "\u2581\u5206\u6790": 533, "\u258130": 534, "\u2581\u57ce\u5e02": 535, "\u53f7": 536, "\u2581\u6d3b\u52a8": 537, "\u258115": 538, "\u9898": 539, "\u80fd": 540, "\u2581\u7279": 541, "*": 542, "\u2581\u4f4e": 543, "3": 544, "\u2581\u7ae0": 545, "\u2581\u6307": 546, "\u94b1": 547, "\u5927\u5b66": 548, "\u56fe": 549, "\u5b9a": 550, "\u300c": 551, "\u2581\u522b": 552, "\u2581\u5143": 553, "\u2581\u53d1\u751f": 554, "\u2581_": 555, "\u2581\u539f\u56e0": 556, "\u2581\u6bd5\u4e1a": 557, "\u529e": 558, "\u4e1a": 559, "\u52a8": 560, "\u50cf": 561, "\u2581\u9664": 562, "\u65f6\u5019": 563, "\u2581\u5e94\u7528": 564, "\u578b": 565, "\u2581\u6570\u636e": 566, "\u2581\u8fc7\u7a0b": 567, "\u2581\u751a\u81f3": 568, "\u2581\u5177\u6709": 569, "\u2581\u5168\u56fd": 570, "\u2581C": 571, "\u2581\u56de": 572, "\u75c5": 573, "\u95e8": 574, "\u2581\u4e0d\u597d": 575, "\u6570": 576, "\u2581\u6295\u8d44": 577, "\u2581\u8bc4\u4ef7": 578, "\u2581\u9898\u4e3b": 579, "\u5229": 580, "\u2581\u5b58\u5728": 581, "\u2581S": 582, "\u2581\u81ea\u7136": 583, "\u2581\u5c5e": 584, "\u2581\u5f3a": 585, "\u2581\u884c\u4e1a": 586, "\u2581\u82b1": 587, "\u2581\u771f": 588, "\u2581\u5b8c": 589, "\u2581\u7b54": 590, "\u2581\u83b7\u5f97": 591, "\u2581\u53d1": 592, "\u2581\u9ed1": 593, "\u4ef6": 594, "\u2581\u6709\u9650": 595, "\u2581\u8f83": 596, "\u51e0\u4e2a": 597, "\u91d1": 598, "\u5c0f": 599, "\u2581\u5dee": 600, "\u2581\u63a7\u5236": 601, "----------------": 602, "\u2581\u5e72": 603, "\u2581\u526f": 604, "\u2581\u4f5c\u54c1": 605, "\u2581\u66fe": 606, "\u2581\u7528\u6237": 607, "\u2581\u4efb\u4f55": 608, "\u65f6\u95f4": 609, "\u2581\u6545\u4e8b": 610, "\u53d1": 611, "\u2581\u5973\u751f": 612, "\u82b1": 613, "\u5185": 614, "\u2581\u5f00\u53d1": 615, "\u9662": 616, "\u5149": 617, "\u770b": 618, "\u2581\u6839\u636e": 619, "\u519b": 620, "\u2581\u8fd9\u662f": 621, "\u2581\u63a8\u8350": 622, "\u2581\u91d1": 623, "\u5988": 624, "\u2581\u6b7b": 625, "\u670d": 626, "\u2581\u7f8e": 627, "\u2581\u53c2\u52a0": 628, "\u6015": 629, "\u2581\u67d0": 630, "\u2581\u52aa\u529b": 631, "\u2581\u5efa\u7b51": 632, "\u65e5": 633, "\u2581\u70b9": 634, "\u2581\u4e0a\u6d77": 635, "\u514b": 636, "\u2581\u53f7": 637, "\u2581\u54c1\u724c": 638, "\u8d5b": 639, "\u2581\u7236\u6bcd": 640, "\u2581\u5fc3": 641, "\u2581\u7406\u89e3": 642, "\u7231": 643, "\u2581\u8bb2": 644, "\u2581\u767d": 645, "\u2581\u5904\u7406": 646, "\u2581\u62e5\u6709": 647, "\u2581\u90e8\u5206": 648, "\u258116": 649, "\u2581\u89e3\u51b3": 650, "\u2581\u6bcf\u5929": 651, "\u2581\u5c81": 652, "\u2581\u53ea\u80fd": 653, "\u6b3e": 654, "\u2581\u6559\u5b66": 655, "\u2581\u4e2d\u5fc3": 656, "\u6709\u4eba": 657, "\u2581\u540c\u5b66": 658, "\u2581\u82f1\u8bed": 659, "\u8d28": 660, "\u4ee5": 661, "\u2581\u8def": 662, "\u2581\u5de5\u7a0b": 663, "\u2581\u897f": 664, "\u2581\u827a\u672f": 665, "\u2581\u4e48": 666, "\u2581\u5efa\u8bae": 667, "\u5143": 668, "\u2581\u6807\u51c6": 669, "\u2581\u7b80\u5355": 670, "\u2581\u5173\u4e8e": 671, "\u2581\u5f97\u5230": 672, "\u8d39": 673, "\u98ce": 674, "\u2581100": 675, "\u2581\u8d77": 676, "\u2581\u7b97": 677, "\u2581\u97f3\u4e50": 678, "\u6982": 679, "\u2581\u7406\u8bba": 680, "\u660e": 681, "\u2581\u6210\u529f": 682, "\u2581\u91cd": 683, "\u2581\u7c7b\u578b": 684, "\u2581\u4ecb\u7ecd": 685, "\u2581\u65e0\u6cd5": 686, "\u5ff5": 687, "\u4e3b": 688, "\u2581\u52a0": 689, "\u2581\u96be": 690, "\u2581\u53cd": 691, "C": 692, "\u2581\u521a": 693, "\u2581\u633a": 694, "\u79d1": 695, "\u8bed": 696, "\u2581\u6709\u70b9": 697, "\u2581\u7ecf": 698, "\u2581\u8003": 699, "\u2581\u5fc5\u987b": 700, "\u2581\u8fdb": 701, "\u2581\u5355\u4f4d": 702, "\u2581\u6700\u5927": 703, "\u6708": 704, "\u7f51": 705, "\u2581\u5219": 706, "\u2581\u8fde": 707, "\u7ed9": 708, "\u2581\u5916": 709, "\u2581\u76f8": 710, "\u591a": 711, "\u2581\u8f66": 712, "\u2581\u5bb9\u6613": 713, "\u2581\u79d1\u5b66": 714, "\u6559": 715, "\u53f0": 716, "\u2581\u9ec4": 717, "\u2581\u5b9e\u73b0": 718, "\u51fa\u7248\u793e": 719, "\u2581\u77e5\u8bc6": 720, "\u2581\u63d0\u9ad8": 721, "\u2581\u4ea7\u751f": 722, "\u8fdb": 723, "\u7ad9": 724, "\u2581\u6548\u679c": 725, "4": 726, "\u2581\u9762": 727, "\u5f53": 728, "\u2581\u6e05": 729, "\u2581\u7403": 730, "\u2581\u975e": 731, "\u7b80\u4ecb": 732, "\u258118": 733, "\u2581\u5468": 734, "\u89c6": 735, "\u2581\u4f18\u79c0": 736, "\u6ca1\u6709": 737, "\u2581\u591a\u5c11": 738, "\u7f8e": 739, "\u2581\u8fd0\u52a8": 740, "\u2581\u7c73": 741, "\u5efa": 742, "\u2581\u6ce8\u610f": 743, "\u5f80": 744, "\u2581\u8dd1": 745, "5": 746, "\u2581T": 747, "\u2581\u79f0": 748, "\u5e97": 749, "\u7cfb\u7edf": 750, "\u2581\u7ecf\u5e38": 751, "\u4f5c": 752, "\u2581\u7ea6": 753, "\u6d77": 754, "\u2581\u51b3\u5b9a": 755, "\u4ee3": 756, "\u2581\u64cd\u4f5c": 757, "\u2581\u884c\u4e3a": 758, "\u56ed": 759, "\u6743": 760, "\u2581\u8d28\u91cf": 761, "\u2581\u73b0\u4ee3": 762, "\u2581\u56e0": 763, "\u4e16": 764, "\u2581\u7ecf\u9a8c": 765, "\u9ad8": 766, "\u2581\u9009": 767, "\u2581\u79d1\u6280": 768, "\u2581\u8d8a": 769, "\u7279": 770, "\u2581\u7ea2": 771, "\u5355": 772, "\u2581\u6559": 773, "\u2581\u4f5c\u7528": 774, "\u2581\u9648": 775, "\u5f62": 776, "\u2581\u91cc\u9762": 777, "\u2581\u7f51\u7ad9": 778, "\u2581\u8f6f\u4ef6": 779, "\u2581\u4e1c": 780, "\u58f0": 781, "\u2581\u5357": 782, "\u2581\u53cc": 783, "\u2581\u5e73\u53f0": 784, "\u2581\u5fc3\u7406": 785, "\u2581\u5566": 786, "\u2581\u963f": 787, "\u2581\u4e0d\u9519": 788, "\u2581\u804c\u4e1a": 789, "\u2581\u61c2": 790, "\u2581\u56e0\u6b64": 791, "\u6389": 792, "\u2581\u4eba\u751f": 793, "\u5dde": 794, "\u4f4f": 795, "\u53ef": 796, "\u2581\u5b8c\u6210": 797, "\u2581\u63d0": 798, "\u6d41": 799, "\u2581\u53d7": 800, "\u771f\u6b63": 801, "\u754c": 802, "\u2581\u5feb": 803, "\u60c5": 804, "\u2581\u5e2e\u52a9": 805, "\u2581\u4ee5\u524d": 806, "\u2581\u544a\u8bc9": 807, "\u767d": 808, "\u95ee": 809, "\u6821": 810, "\u2581\u4f5c\u8005": 811, "\u2581\u6cd5\u5f8b": 812, "\u2581\u5f62\u6210": 813, "\u2581\u5218": 814, "\u5feb": 815, "\u258150": 816, "\u2581\u9047\u5230": 817, "\u738b": 818, "\u2581\u4ef7\u683c": 819, "\u2581\u533b\u9662": 820, "\u2581\u5ba2\u6237": 821, "\u2581\u666e\u901a": 822, "\u8a00": 823, "\u2581\u60a8": 824, "\u2581\u7ad9": 825, "\u2581\u6cbb\u7597": 826, "\u2581\u6761\u4ef6": 827, "\u72b6": 828, "\u2581\u8003\u8651": 829, "\u2581\u7ed3\u6784": 830, "\u2581\u8fdb\u5165": 831, "\u2581\u4ee3\u8868": 832, "\u2581\u4fdd\u62a4": 833, "\u2581\u7406": 834, "\u2581\u6539": 835, "\u2581\u5c0f\u65f6": 836, "\u2581\u4eca\u5929": 837, "\u91cd": 838, "\u6c11": 839, "\u89c2": 840, "\u2581\u4e00\u5e74": 841, "\u2581\u5b9e\u9645": 842, "\u2581\u63a5\u53d7": 843, "\u623f": 844, "\u2581\u7b2c\u56db": 845, "\u2581\u624b": 846, "\u25812010": 847, "\u2581\u5750": 848, "\u2581\u6b63\u5e38": 849, "\u2581\u7f51": 850, "\u2581\u7701": 851, "\u2581\u7efc\u5408": 852, "\u6240": 853, "\u2581\u63a8": 854, "\u2581\u5bb6\u5ead": 855, "\u2581\u624d\u80fd": 856, "\u2581\u6539\u53d8": 857, "\u2581\u968f": 858, "\u2581\u7ee7\u7eed": 859, "\u5f3a": 860, "\u2581\u5e2e": 861, "\u2581\u6c34\u5e73": 862, "\u7cfb": 863, "\u2581\u5408\u4f5c": 864, "\u2581\u51c6\u5907": 865, "\u5708": 866, "\u6797": 867, "\u2581\u5efa\u7acb": 868, "\u2581\u5173\u6ce8": 869, "\u96c6": 870, "\u2581\u79bb": 871, "\u77f3": 872, "\u2581\u7537\u751f": 873, "\u2581\u6a21\u5f0f": 874, "\u2581\u4e8e\u662f": 875, "\u65bd": 876, "\u2581\u8fbe\u5230": 877, "\u2581\u4f20\u7edf": 878, "\u2581\u5236\u4f5c": 879, "\u2581\u4e0d\u65ad": 880, "\u2581\u770b\u770b": 881, "\u62c9": 882, "\u5206": 883, "\u2581\u4e4b\u4e00": 884, "\u2581\u5177\u4f53": 885, "\u2581\u57f9\u8bad": 886, "\u89d2": 887, "\u2581\u76ee\u6807": 888, "\u2581\u5de6\u53f3": 889, "\u2581\u9002\u5408": 890, "\u6218": 891, "\u2581\u575a\u6301": 892, "\u2581\u8868\u73b0": 893, "\u2581\u8d44\u6e90": 894, "\u7248": 895, "\u5c42": 896, "\u2581\u8ba4\u8bc6": 897, "\u5175": 898, "\u258114": 899, "\u2581\u7248": 900, "\u2581\u5730\u533a": 901, "\u2581\u673a\u6784": 902, "\u9a6c": 903, "\u697c": 904, "\u2581\u4e00\u5929": 905, "\u2581\u5360": 906, "\u9547": 907, "\u5df2": 908, "\u2581\u516d": 909, "\u2581\u671f": 910, "\u2581com": 911, "\u7fa4": 912, "\u2581\u8f6c": 913, "\u9879": 914, "\u76d8": 915, "\u2581\u7cbe\u795e": 916, "\u2581\u903c": 917, "\u2581\u672a\u6765": 918, "\u2581\u80af\u5b9a": 919, "\u7a0b": 920, "\u534e": 921, "\u5e26": 922, "\u2581\u7b49\u7b49": 923, "\u77e5": 924, "\u2581\u5b9e\u9a8c": 925, "\u2581\u6362": 926, "\u2581\u5bb6\u91cc": 927, "\u2581\u7a81\u7136": 928, "\u5c4a": 929, "\u2581\u65c5\u6e38": 930, "\u2581\u516c\u91cc": 931, "\u521d": 932, "\u2581\u8bbe\u5907": 933, "\u2581\u51fa\u7248": 934, "\u2581\u91cd\u70b9": 935, "\u2581I": 936, "\u2581\u9760": 937, "\u2581\u9001": 938, "\u2581\u8bed\u8a00": 939, "\u2581\u65b9\u5411": 940, "\u8bfb": 941, "\u2581\u8eab": 942, "\u2581\u9a6c": 943, "\u6b7b": 944, "\u2581\u795e": 945, "\u2581\u4e00\u53e5": 946, "\u7d20": 947, "\u9f99": 948, "\u2581\u7cfb\u5217": 949, "\u7406": 950, "\u2581\u89c1": 951, "\u2581\u4e0d\u5230": 952, "'": 953, "\u2581\u4f4d\u4e8e": 954, "\u2581\u9886\u5bfc": 955, "\u2581\u529e": 956, "\u2581\u91c7\u7528": 957, "\u5956": 958, "\u2581P": 959, "\u2581\u8ba1\u5212": 960, "\u2581\u7ecf\u8425": 961, "y": 962, "\u2581\u8bfb": 963, "\u2581\u5988": 964, "\u2581\u7a7f": 965, "\u5757": 966, "\u2581\u5bfc\u81f4": 967, "\u2581\u9500\u552e": 968, "\u2581x": 969, "\u5f20": 970, "\u2581\u4eba\u7c7b": 971, "\u2581\u533b": 972, "\u2581\u4ef7\u503c": 973, "\u76ee": 974, "\u5408": 975, "\u7403": 976, "\u25812009": 977, "\u2581\u89c6\u9891": 978, "\u2581\u8eab\u4f53": 979, "\u7ba1": 980, "\u6bd4": 981, "\u2581\u653f\u6cbb": 982, "\u6599": 983, "\u2581\u786e\u5b9e": 984, "\u2581\u627e\u5230": 985, "\u5e73": 986, "\u5de5": 987, "\u2581\u6307\u5bfc": 988, ">": 989, "\u2581\u610f\u4e49": 990, "\u2581\u7537\u4eba": 991, "\u6536\u5165": 992, "e": 993, "\u2581\u4e00\u5207": 994, "\u2581\u6bd5\u7adf": 995, "\u2581\u672c\u4eba": 996, "\u2581\u4e0d\u7528": 997, "\u2581\u76f8\u4fe1": 998, "\u258113": 999, "\u2581\u5b66\u9662": 1000, "\u2581\u8bf4\u660e": 1001, "\u25812011": 1002, "\u2581\u653f\u5e9c": 1003, "\u2581\u9ad8\u4e2d": 1004, "\u2581\u8c22\u8c22": 1005, "\u2581\u5b57": 1006, "\u2581\u4e1a\u52a1": 1007, "\u2581\u62cd": 1008, "\u2581\u72b6\u6001": 1009, "\u2581\u6574\u4e2a": 1010, "\u2581\u56fe": 1011, "\u2581\u73ed": 1012, "\u2581\u9644": 1013, "\u2581\u767e\u5ea6": 1014, "\u2581the": 1015, "\u8bbe": 1016, "\u2581E": 1017, "\u2581\u6c42": 1018, "\u25812008": 1019, "\u2581\u6839\u672c": 1020, "\u6cb3": 1021, "7": 1022, "\u2581\u5317": 1023, "\u2581\u5408": 1024, "\u6cb9": 1025, "\u62a5": 1026, "\u5b9d": 1027, "\u677f": 1028, "\u9986": 1029, "\u5b89": 1030, "\u2581\u7b2c\u4e00\u6b21": 1031, "\u65e0": 1032, "\u2581\u53e4": 1033, "\u2581\u5229\u7528": 1034, "\u5177": 1035, "\u5802": 1036, "\u8bba": 1037, "\u2581\u89c4\u5b9a": 1038, "\u2581\u611f\u53d7": 1039, "\u2581\u9999\u6e2f": 1040, "\u2581D": 1041, "\u2581\u672a": 1042, "\u2581\u4e07\u5143": 1043, "\u2581\u4eba\u7269": 1044, "0": 1045, "\u2581\u62c9": 1046, "\u2581\u884c\u653f": 1047, "\u2581\u589e\u52a0": 1048, "\u5f03": 1049, "\u901a": 1050, "\u65b0": 1051, "\u2581\u5973\u6027": 1052, "\u2581\u519c\u6751": 1053, "\u2581\u7b80": 1054, "\u2581\u65f6\u4ee3": 1055, "\u6f14": 1056, "\u4efd": 1057, "\u2581\u601d\u60f3": 1058, "\u5fd7": 1059, "\u6bb5": 1060, "d": 1061, "\u2581\u4ee5\u4e3a": 1062, "\u2581\u5c11": 1063, "\u2581\u5065\u5eb7": 1064, "\u2581\u4ea9": 1065, "\u773c": 1066, "\u2581\u5171": 1067, "\u666f": 1068, "\u2581\u559d": 1069, "\u8ff0": 1070, "\u2581\u63d0\u51fa": 1071, "\u4eba\u5458": 1072, "\u2581\u4eba\u6c11": 1073, "\u97f3": 1074, "\u661f": 1075, "\u2581\u6709\u6548": 1076, "\u8fbe": 1077, "\u2581\u516c": 1078, "\u2581\u4e03": 1079, "\u503c": 1080, "\u592b": 1081, "\u2581\u5747": 1082, "\u9633": 1083, "\u76f4": 1084, "\u2581\u8bb8\u591a": 1085, "\u56e2": 1086, "\u2581\u641e": 1087, "\u706b": 1088, "\u7ed3": 1089, "\u2581\u8d8a\u6765\u8d8a": 1090, "\u2581\u5404\u4f4d": 1091, "\u540c": 1092, "\u4e49": 1093, "\u2581\u4ecd": 1094, "\u2581\u4ee5\u4e0b": 1095, "\u795e": 1096, "\u561b": 1097, "\u2581\u7535\u5b50": 1098, "\u58eb": 1099, "\u516c": 1100, "\u2581\u6536": 1101, "\u2581\u8868\u793a": 1102, "\u2581\u8bbe": 1103, "\u2581\u5c0f\u5b66": 1104, "\u2581\u66fe\u7ecf": 1105, "\u2581\u89c4\u5212": 1106, "\u2581\u8fc7\u53bb": 1107, "\u2581\u9020\u6210": 1108, "\u2581M": 1109, "\u2581\u673a\u4f1a": 1110, "\u2581\u5fc3\u91cc": 1111, "\u258125": 1112, "\u5473": 1113, "\u7136\u800c": 1114, "\u2581\u5e74\u8f7b": 1115, "\u8868": 1116, "\u2581\u73b0": 1117, "\u5982": 1118, "\u2581\u9700\u6c42": 1119, "\u2581\u65e9": 1120, "\u2581\u6750\u6599": 1121, "\u2581http": 1122, "6": 1123, "\u2581\u65b0\u95fb": 1124, "\u2581\u9886\u57df": 1125, "\u2581\u6d77": 1126, "\u2581\u7c7b\u4f3c": 1127, "\u5e38": 1128, "g": 1129, "\u2581\u7a7a\u95f4": 1130, "\u2581\u57fa": 1131, "\u2581\u81ea\u7531": 1132, "\u75c7": 1133, "\u7531": 1134, "\u2581\u8003\u8bd5": 1135, "\u897f": 1136, "\u2581\u660e\u663e": 1137, "\u2581\u4ea7\u4e1a": 1138, "\u2581\u53f0\u6e7e": 1139, "\u53d6": 1140, "\u8bbe\u8ba1": 1141, "\u7ec4": 1142, "\u2581\u5355": 1143, "\u8bcd": 1144, "\u81f3\u4e8e": 1145, "\u2581\u7a0b\u5ea6": 1146, "\u2581a": 1147, "\u2581&": 1148, "\u53f2": 1149, "\u5f55": 1150, "\u2581\u83b7": 1151, "\u2581\u5973\u4eba": 1152, "\u2581\u5565": 1153, "\u2581\u4ea4": 1154, "\u5382": 1155, "\u2581\u5356": 1156, "\u2581\u54ea\u91cc": 1157, "\u8d27": 1158, "\u2581\u6700\u7ec8": 1159, "\u2581\u5e7f\u544a": 1160, "\u2581\u751f\u547d": 1161, "\u2581\u96c6\u56e2": 1162, "\u25812006": 1163, "\u2581F": 1164, "\u53ca": 1165, "\u683c": 1166, "\u98df": 1167, "\u73ed": 1168, "\u4e91": 1169, "\u2581\u504f": 1170, "\u2581\u4ece\u4e8b": 1171, "\u2581\u4e66": 1172, "\u2581\u516b": 1173, "\u2581\u4e8b\u4ef6": 1174, "\u2581\u7ecf\u8fc7": 1175, "\u2581\u51cf": 1176, "\u2581\u542b": 1177, "\u258117": 1178, "\u2581\u5b9e\u65bd": 1179, "\u2581\u7535": 1180, "\u5f71": 1181, "\u5973": 1182, "\u25812007": 1183, "\u6e90": 1184, "\u4ef7": 1185, "\u5385": 1186, "\u2581\u613f\u610f": 1187, "\u2581\u4fbf": 1188, "\u2581\u753b": 1189, "\u258140": 1190, "\u2581\u4ea4\u6d41": 1191, "\u2581\u767e": 1192, "\u4e50": 1193, "\u836f": 1194, "\u2581\u8ba8\u8bba": 1195, "\u2581\u53d8\u5316": 1196, "\u671d": 1197, "\u2581\u52a0\u5165": 1198, "\u53d8": 1199, "\u81f3": 1200, "\u2581\u70ed": 1201, "\u00d7": 1202, "\u2581\u4e09\u4e2a": 1203, "\u2581of": 1204, "\u2581\u6751": 1205, "\u2581\u8ddd\u79bb": 1206, "\u2581\u653f\u7b56": 1207, "\u2581\u5168\u90e8": 1208, "\u4fe1": 1209, "\u2581\u65e0\u8bba": 1210, "\u9886": 1211, "\u4ece": 1212, "\u2581\u4efb\u52a1": 1213, "\u83dc": 1214, "\u9152": 1215, "\u2581\u8303\u56f4": 1216, "\u2581\u5f80": 1217, "\u4e09": 1218, "\u5ea7": 1219, "\u2581\u7535\u8111": 1220, "G": 1221, "\u2581\u8865\u5145": 1222, "\u56de": 1223, "\u2581\u578b": 1224, "\u2581\u4e13": 1225, "\u2581\u521b\u65b0": 1226, "\u4fa7": 1227, "\u7eb3": 1228, "\u2581\u4e00\u6bb5": 1229, "\u2581\u6bd4\u8d5b": 1230, "\u2581\u76f8\u5bf9": 1231, "\u2581\u7b80\u4ecb": 1232, "\u2581\u4e30\u5bcc": 1233, "\u2581\u5148\u8fdb": 1234, "D": 1235, "\u4e1c": 1236, "\u2581\u72ec\u7acb": 1237, "\u2581\u4eba\u53e3": 1238, "\u2581\u663e\u793a": 1239, "\u2581\u76ee\u7684": 1240, "\u2581\u7a0b\u5e8f": 1241, "\u7bc7": 1242, "\u2581\u636e": 1243, "\u4f24": 1244, "\u25812000": 1245, "\u2581\u5927\u91cf": 1246, "\u2581\u5c0f\u8bf4": 1247, "\u2581\u73b0\u5b9e": 1248, "\u2581\u5012": 1249, "\u4f8b": 1250, "\u2581\u6211\u56fd": 1251, "\u2581\u95e8": 1252, "\u4e8c": 1253, "\u2581\u611f\u60c5": 1254, "\u53d7": 1255, "\u2581\u6210\u7ee9": 1256, "\u4e48": 1257, "\u6e10": 1258, "\u2581\u8054\u7cfb": 1259, "\u2581N": 1260, "\u2581\u53c2\u8003": 1261, "\u4e45": 1262, "\u4e1d": 1263, "\u2581\u529e\u516c": 1264, "\u5219": 1265, "\u2581\u6240\u8c13": 1266, "\u5e72": 1267, "\u2581\u5546\u4e1a": 1268, "\u2581\u7eaf": 1269, "\u2581\u8bc4\u8bba": 1270, "\u2581\u89e3\u91ca": 1271, "\u2581\u7f51\u4e0a": 1272, "\u5305": 1273, "\u5c81": 1274, "\u2581\u5fae\u535a": 1275, "\u2581\u56fe\u4e66": 1276, "\u5bb3": 1277, "\u5dee": 1278, "\u2581\u665a\u4e0a": 1279, "\u2581\u9547": 1280, "\u2581\u91d1\u878d": 1281, "\u7c89": 1282, "\u2581\u4fdd\u6301": 1283, "\u2581\u8bfe\u7a0b": 1284, "\u2581\u5982\u6b64": 1285, "\u2581\u5fae\u4fe1": 1286, "\u2581\u534a": 1287, "\u2581\u519c\u4e1a": 1288, "\u2581\u5927\u90e8\u5206": 1289, "\u2581\u5e02": 1290, "\u6c5f": 1291, "\u2581\u8868": 1292, "\u2581\u8bb0\u5f97": 1293, "\u2581\u57f9\u517b": 1294, "\u6b63": 1295, "\u2581\u7ed3\u5a5a": 1296, "\u2581\u6c7d\u8f66": 1297, "\u56de\u6765": 1298, "\u2581\u5b89": 1299, "\u2581\u7231\u60c5": 1300, "\u2581\u5de5\u4e1a": 1301, "\u2581\u521d": 1302, "\u2581\u514b": 1303, "\u5242": 1304, "8": 1305, "\u2581\u8fbe": 1306, "\u5b98": 1307, "\u2581\u5173\u952e": 1308, "\u258124": 1309, "\u8bfe": 1310, "\u2581\u60c5": 1311, "\u2581\u6536\u5165": 1312, "\u2581\u5e73": 1313, "\u2581\u60a3": 1314, "\u2581\u60f3\u6cd5": 1315, "\u2581\u5165": 1316, "\u2581\u4ea4\u901a": 1317, "\u2581\u4e13\u5bb6": 1318, "\u2581\u6768": 1319, "\u7b54": 1320, "\u2581\u7279\u8272": 1321, "\u2581\u5c24\u5176": 1322, "\u2581\u4f4d\u7f6e": 1323, "\u5170": 1324, "\u2581\u8d44\u6599": 1325, "\u2581\u5e26\u6765": 1326, "\u2581\u6570": 1327, "\u76f8": 1328, "\u2581\u8d85": 1329, "\u2581\u5c71": 1330, "\u8c03": 1331, "\u25812012": 1332, "\u706f": 1333, "\u76ae": 1334, "\u2581\u4fdd\u8bc1": 1335, "\u2581\u4f3c": 1336, "\u2581\u6838\u5fc3": 1337, "\u2581\u4eba\u624d": 1338, "\u2581\u601d\u8003": 1339, "\u88c5": 1340, "\u2581\u8fdc": 1341, "\u2581\u4eba\u5458": 1342, "\u2581\u5236\u5ea6": 1343, "\u2581\u56e2\u961f": 1344, "\u6e38\u620f": 1345, "\u2581\u7a33\u5b9a": 1346, "\u258121": 1347, "\u2581\u4ebf": 1348, "\u2581\u8d85\u8fc7": 1349, "\u7a7a": 1350, "\u2581\u5fae": 1351, "\u2581\u4e00\u5bb6": 1352, "\u2581\u77ed": 1353, "\u2581\u4f59": 1354, "\u2581\u5206\u949f": 1355, "\u2581\u7b2c\u4e94": 1356, "\u2581\u4e25\u91cd": 1357, "\u2581\u54ed": 1358, "\u2581\u6237": 1359, "\u2581\u5206\u4eab": 1360, "\u2581\u538b\u529b": 1361, "\u2581\u53c2\u4e0e": 1362, "\u2581\u6570\u5b66": 1363, "\u2581\u4e0d\u7ba1": 1364, "\u53ca\u5176": 1365, "\u2581\u5373\u4f7f": 1366, "\u2581\u5168\u9762": 1367, "\u2581\u5149": 1368, "\u2581\u89d2\u5ea6": 1369, "\u826f": 1370, "\u2581\u660e\u767d": 1371, "\u2581\u5b66\u672f": 1372, "\u2581\u4e5d": 1373, "\u2581\u6df1": 1374, "\u2581\u7533\u8bf7": 1375, "\u2581\u4e0d\u5c11": 1376, "\u2581\u72d7": 1377, "\u4f20": 1378, "\u2581\u5e38": 1379, "\u2581\u663e": 1380, "\u25812005": 1381, "\u8bb0": 1382, "\u2581\u63cf\u8ff0": 1383, "\u2581\u63a5\u89e6": 1384, "\u2581\u4f18\u52bf": 1385, "\u2581\u65b9\u4fbf": 1386, "\u2581G": 1387, "\u5b63": 1388, "\u2581\u6ee1\u8db3": 1389, "\u2581\u7c7b": 1390, "\u4e3a\u4e3b": 1391, "\u258160": 1392, "\u5267": 1393, "\u2581R": 1394, "\u53e5": 1395, "\u2581\u5b9e\u5728": 1396, "\u2581\u6587\u5b66": 1397, "\u2581\u771f\u662f": 1398, "\u2581\u90e8\u95e8": 1399, "\u2581\u6765\u81ea": 1400, "\u59d0": 1401, "\u2581\u8ba1\u7b97\u673a": 1402, "\u2581\u501f": 1403, "\u2581\u4e91": 1404, "\u2581\u6559\u5e08": 1405, "\u7ea2": 1406, "\u2581\u697c": 1407, "\u2581\u63a5": 1408, "\u2581\u94f6\u884c": 1409, "\u8fdc": 1410, "\u2581\u7559": 1411, "\u2581\u53d7\u5230": 1412, "\u2581\u8457\u540d": 1413, "\u2581\u77f3": 1414, "\u2581\u7167\u7247": 1415, "\u2581\u5f62\u5f0f": 1416, "\u2581\u81ea\u52a8": 1417, "\u2581\u771f\u5b9e": 1418, "\u5c9b": 1419, "\u2581\u56de\u5bb6": 1420, "ing": 1421, "\u2581\u5341\u5206": 1422, "\u2581\u786e\u5b9a": 1423, "\u2581\u4e60\u60ef": 1424, "\u724c": 1425, "\u7530": 1426, "\u2581\u79fb\u52a8": 1427, "\u2581L": 1428, "\u2581\u8089": 1429, "\u5883": 1430, "\u2581\u5904": 1431, "\u2581\u7edd\u5bf9": 1432, "m": 1433, "\u2581\u591a\u5e74": 1434, "\u2581\u6d3b": 1435, "\u6c0f": 1436, "\u904d": 1437, "\u7ba1\u7406": 1438, "\u2581\u9152\u5e97": 1439, "\u2581\u63d0\u5347": 1440, "\u2581\u6210\u672c": 1441, "\u2581\u68c0\u67e5": 1442, "\u2581\u901a": 1443, "\u9002": 1444, "\u8bc1": 1445, "\u2581H": 1446, "\u2581\u5b9a": 1447, "\u2581\u98ce\u683c": 1448, "\u2581\u7ed3\u5408": 1449, "\u7f16": 1450, "er": 1451, "\u2581\u597d\u597d": 1452, "\u2581\u4e92\u8054\u7f51": 1453, "\u5b97": 1454, "\u2581\u5206\u522b": 1455, "\u2581\u98ce": 1456, "\u5c3c": 1457, "\u66f2": 1458, "\u67b6": 1459, "\u2581\u6c11\u65cf": 1460, "\u2581\u5e78\u798f": 1461, "\u2581\u82f1\u56fd": 1462, "\u57fa": 1463, "\u2581\u4eca\u5e74": 1464, "\u2581\u96c6": 1465, "\u2581\u901f\u5ea6": 1466, "\u9c7c": 1467, "\u2581\u88c5": 1468, "\u258180": 1469, "\u2581\u6587\u4ef6": 1470, "W": 1471, "\u2581\u7535\u8bdd": 1472, "\u2581\u8863": 1473, "\u2581\u6c38\u8fdc": 1474, "\u671b": 1475, "\u258119": 1476, "\u2581\u79ef\u6781": 1477, "\u548c": 1478, "\u2581\u6559\u6388": 1479, "\u2581\u4ea4\u6613": 1480, "\u5357": 1481, "\u2581\u4f1a\u5458": 1482, "\u4f55": 1483, "\u2581\u8f7b": 1484, "\u2605": 1485, "\u2581\u751f\u7269": 1486, "\u8054": 1487, "\u2581\u59b9": 1488, "\u5fae": 1489, "\u2581\u76ae\u80a4": 1490, "\u2581\u8ffd\u6c42": 1491, "\u52bf": 1492, "\u2581\u914d": 1493, "\u2581m": 1494, "\u2581\u4efb": 1495, "\u2581\u7ec4\u6210": 1496, "\u2581\u5e73\u65f6": 1497, "\u2581\u6c49": 1498, "\u653f\u5e9c": 1499, "\u2581\u5f00\u5fc3": 1500, "\u2581\u9762\u5bf9": 1501, "\u2581\u957f\u671f": 1502, "\u4e3d": 1503, "\u2581\u672c\u6765": 1504, "\u2581\u4e61": 1505, "\u2581\u6781": 1506, "\u2581\u53d1\u8868": 1507, "\u2581\u6700\u9ad8": 1508, "\u2581\u535a\u58eb": 1509, "mm": 1510, "\u2581\u5434": 1511, "\u2581\u8bd7": 1512, "\u2581\u8ffd": 1513, "\u5c31\u7b97": 1514, "\u6e05": 1515, "\u2581\u59d4\u5458\u4f1a": 1516, "\u2581\u7b11": 1517, "\u2581\u4e0d\u53ef": 1518, "\u2581\u80cc": 1519, "\u2581\u4e50": 1520, "\u7aef": 1521, "\u2581\u8d34": 1522, "\u5176": 1523, "\u53f6": 1524, "\u2581\u503c\u5f97": 1525, "\u7535\u8bdd": 1526, "\u9999": 1527, "\u2581\u6162\u6162": 1528, "\u2581\u660e": 1529, "\u2581\u8bbe\u7f6e": 1530, "\u2581\u5341": 1531, "\u2581\u6027\u683c": 1532, "\u2581\u9605\u8bfb": 1533, "\u2581\u623f": 1534, "\u7f57": 1535, "\u8001": 1536, "\u81ea": 1537, "\u5168": 1538, "\u708e": 1539, "\u6b4c": 1540, "\u2581\u82e5": 1541, "\u4e61": 1542, "\u2581\u8ba4\u771f": 1543, "\u2581\u5efa": 1544, "\u2581\u9ad8\u8003": 1545, "\u753b": 1546, "\u6cbb": 1547, "\u2581\u672c\u79d1": 1548, "\u4e0d\u591a": 1549, "\u2581\u5fc5\u8981": 1550, "V": 1551, "\u2581\u4e00\u6761": 1552, "\u2581\u6bdb": 1553, "\u2581\u4e2d\u5b66": 1554, "\u2581\u51fa\u53bb": 1555, "\u2581\u52b3\u52a8": 1556, "\u2581\u8bad\u7ec3": 1557, "\u6728": 1558, "\u2581\u5361": 1559, "\u8457": 1560, "\u2581\u770b\u7740": 1561, "\u6d3e": 1562, "\u2581\u5ba3\u4f20": 1563, "\u25812004": 1564, "\u2581\u521b\u4e1a": 1565, "\u5377": 1566, "\u2581\u610f\u601d": 1567, "\u2581\u8db3": 1568, "\u5b9e": 1569, "\u2581\u5f15\u8d77": 1570, "\u2581\u81ea\u6211": 1571, "\u2581\u6b63\u786e": 1572, "@": 1573, "\u2581\u8868\u8fbe": 1574, "\u2581\u4e8b\u4e1a": 1575, "\u975e": 1576, "\u4eba\u5bb6": 1577, "\u2581\u6761": 1578, "\u2581\u80cc\u666f": 1579, "\u5cf0": 1580, "\u2581\u6837\u5b50": 1581, "\u6b65": 1582, "\u2581\u6267\u884c": 1583, "\u2581\u4e0d\u4ec5": 1584, "\u2581\u75c5": 1585, "\u2581\u6982\u5ff5": 1586, "\u2581\u66f4\u65b0": 1587, "\u7535": 1588, "\u2581\u79d1\u7814": 1589, "\u5ba2": 1590, "9": 1591, "\u665a": 1592, "\u2581\u63a5\u53e3": 1593, "\u2581\u5c3a\u5bf8": 1594, "\u2581\u8c22": 1595, "\u2581\u98de": 1596, "\u2581\u6e05\u695a": 1597, "\u2581\u5a92\u4f53": 1598, "\u9009": 1599, "\u2581\u7814\u7a76\u751f": 1600, "\u2581\u529b\u91cf": 1601, "\u2581\u4eab\u53d7": 1602, "\u2581\u5546": 1603, "\u2581and": 1604, "\u258122": 1605, "\u5b66\u9662": 1606, "\u90fd": 1607, "\u2581V": 1608, "\u2581\u5e74\u4ee3": 1609, "\u2581\u5403\u996d": 1610, "\u2581K": 1611, "\u2581\u5171\u540c": 1612, "\u2581\u54e6": 1613, "\u2581\u673a\u68b0": 1614, "\u2581\u8425\u9500": 1615, "K": 1616, "\u2581--": 1617, "\u6ce2": 1618, "\u6237": 1619, "\u2581\u52a8\u7269": 1620, "\u2581\u552f\u4e00": 1621, "S": 1622, "\u2581\u533a\u522b": 1623, "a": 1624, "\u8089": 1625, "\u2581\u53d1\u5e03": 1626, "\u2581\u4e3b\u4efb": 1627, "\u70ed": 1628, "\u2581\u5168\u7403": 1629, "\u2581\u6587\u7ae0": 1630, "\u6839": 1631, "\u2581\u4e0d\u6562": 1632, "\u2581\u533b\u7597": 1633, "\u2581\u536b\u751f": 1634, "x": 1635, "\u2581\u4e00\u4f4d": 1636, "\u2581\u9ad8\u7ea7": 1637, "\u2581\u4ea6": 1638, "\u6b64": 1639, "w": 1640, "\u5411": 1641, "\u2581\u8138": 1642, "\u2581\u5b89\u88c5": 1643, "\u2581X": 1644, "\u2581\u51b7": 1645, "\u2581\u8c03": 1646, "\u65cf": 1647, "\u2581\u4e0d\u591f": 1648, "\u2581\u7279\u6b8a": 1649, "\u2581\u7cbe": 1650, "\u2581\u79d1": 1651, "\u2581\u8bfb\u4e66": 1652, "\u2581\u5458\u5de5": 1653, "\u2581\u597d\u591a": 1654, "\u2581\u6027\u80fd": 1655, "\u2581\u7236\u4eb2": 1656, "\u2581\u8bf4\u8bdd": 1657, "\u2581\u539f\u6765": 1658, "\u2581\u7f57": 1659, "\u2581\u56fe\u7247": 1660, "\u2581J": 1661, "\u2581\u5b9e\u8df5": 1662, "\u2581\u56fd\u5916": 1663, "M": 1664, "\u2581\u7535\u89c6": 1665, "\u2581\u8d23\u4efb": 1666, "\u2581\u5feb\u901f": 1667, "\u2581\u5bbd": 1668, "\u2581\u6280\u80fd": 1669, "\u8d70": 1670, "\u2581\u6797": 1671, "}": 1672, "\u2581\u5174\u8da3": 1673, "{": 1674, "\u5e94": 1675, "\u2581\u5b9e": 1676, "\u2581\u6210\u957f": 1677, "\u2581\u97e9\u56fd": 1678, "\u2581\u58f0\u97f3": 1679, "\u2581\u76f8\u5f53": 1680, "\u2581\u519c\u6c11": 1681, "\u5f1f": 1682, "\u2581\u6b27\u6d32": 1683, "\u2581\u4f4f": 1684, "\u2581\u521b\u9020": 1685, "A": 1686, "\u2581\u5c45": 1687, "\u6253": 1688, "\u2581\u8ba1\u7b97": 1689, "\u258190": 1690, "\u2581\u73b0\u8c61": 1691, "\u7bb1": 1692, "\u7b97": 1693, "\u2581\u89d2\u8272": 1694, "p": 1695, "\u2581\u9488\u5bf9": 1696, "\u2581\u6b63\u5728": 1697, "\u2581\u7ade\u4e89": 1698, "\u2581\u5fb7\u56fd": 1699, "\u9178": 1700, "\u2581\u5176\u5b83": 1701, "\u8349": 1702, "k": 1703, "\u2581\u611f\u8c22": 1704, "\u6865": 1705, "\u2581\u53cd\u5e94": 1706, "\u5c45": 1707, "\u2581\u98ce\u9669": 1708, "\u2581\u5206\u624b": 1709, "\u2581200": 1710, "\u96be": 1711, "\u2581\u706b": 1712, "\u2581\u81ea\u8eab": 1713, "\u2581\u8bc1\u660e": 1714, "\u2581\u8d2d\u4e70": 1715, "\u2581\u4e0d\u4e86": 1716, "\u2581\u4f53\u80b2": 1717, "\u547d": 1718, "\u522b": 1719, "b": 1720, "\u4e2d\u5fc3": 1721, "\u523b": 1722, "\u2581\u5546\u54c1": 1723, "\u2581\u5de5\u5177": 1724, "\u2581\u7b2c\u516d": 1725, "\u2581\u6218\u7565": 1726, "\u2581\u534f\u4f1a": 1727, "\u2581\u90a3\u6837": 1728, "\u2581\u82f1": 1729, "\u653e": 1730, "\u2581\u6587": 1731, "\u2581\u56fd": 1732, "px": 1733, "\u2581\u65e2": 1734, "\u2581\u5730\u56fe": 1735, "\u6811": 1736, "\u679c": 1737, "\u25812003": 1738, "\u2581\u94c1": 1739, "\u2581\u9f99": 1740, "\u8857": 1741, "\u2581\u7ed3\u675f": 1742, "\u2581\u62b1": 1743, "\u2581\u89c2\u70b9": 1744, "\u2581\u539f\u5219": 1745, "\u9047": 1746, "\u5bf9": 1747, "\u2581\u53c2\u6570": 1748, "\u2581\u56e0\u7d20": 1749, "\u6d3b": 1750, "\u2581\u514d\u8d39": 1751, "\u2581\u6740": 1752, "\u5173\u7cfb": 1753, "\u538b": 1754, "\u2581\u725b": 1755, "\u2581\u533a\u57df": 1756, "\u7389": 1757, "n": 1758, "\u8840": 1759, "\u2581\u5440": 1760, "\u2581\u53d6\u5f97": 1761, "\u2581\u7ffb": 1762, "\u2581\u5973\u5b69": 1763, "\u2581\u793e\u533a": 1764, "\u5e03": 1765, "\u2581\u5e73\u5747": 1766, "\u7ec8\u4e8e": 1767, "\u6db2": 1768, "\u6559\u80b2": 1769, "\u4e94": 1770, "\u2581\u7ec4": 1771, "\u91ce": 1772, "\u6c42": 1773, "\u2581\u8d44\u91d1": 1774, "c": 1775, "\u2581\u82cf": 1776, "\u996d": 1777, "\u2581\u4e2d\u592e": 1778, "\u258123": 1779, "\u2581\u5316\u5b66": 1780, "\u672f": 1781, "\u2581\u4fe1": 1782, "\u2581\u6c14": 1783, "\u5957": 1784, "\u2581\u5236\u9020": 1785, "\u2581\u5bf9\u8c61": 1786, "\u2581\u6b63\u5f0f": 1787, "\u2581\u4e16\u7eaa": 1788, "\u793e": 1789, "\u2581\u5f00\u5c55": 1790, "\u2581\u5957": 1791, "\u2581\u6728": 1792, "\u2581\u6765\u6e90": 1793, "\u2581\u8c03\u67e5": 1794, "\u2581\u9a82": 1795, "\u8003": 1796, "\u2581\u690d\u7269": 1797, "\u2581\u8d75": 1798, "\u51b5": 1799, "\u811a": 1800, "\u591c": 1801, "\u5b58": 1802, "o": 1803, "\u2581\u5185\u5fc3": 1804, "\u2581\u4e0d\u5982": 1805, "\u2581\u6539\u9769": 1806, "\u2581\u7761": 1807, "\u2581\u4ece\u6765": 1808, "\u6c60": 1809, "\u2581\u7b26\u5408": 1810, "\u2581\u4eca": 1811, "\u6613": 1812, "\u2581\u55b7": 1813, "\u2581\u5206\u7c7b": 1814, "\u5200": 1815, "\u2581\u76f4": 1816, "\u2581\u8bb0": 1817, "\u2581\u8bba\u6587": 1818, "\u843d": 1819, "\u2581\u9700": 1820, "\u2581\u54a8\u8be2": 1821, "\u2581\u6d4b\u8bd5": 1822, "\u8ba1": 1823, "\u4f7f": 1824, "\u2581\u62c5": 1825, "\u2581\u7ba1": 1826, "\u2581\u5584": 1827, "\u8863": 1828, "\u2581\u6001\u5ea6": 1829, "\u6307": 1830, "\u5f84": 1831, "\u2581\u82f1\u96c4": 1832, "\u2581\u8c03\u6574": 1833, "\u2581\u5f53\u5e74": 1834, "\u258128": 1835, "\u4e16\u754c": 1836, "\u2581\u8be6\u7ec6": 1837, "\u6258": 1838, "\u2581\u5927\u578b": 1839, "\u5854": 1840, "\u2581\u84dd": 1841, "\u2581\u52a0\u4e0a": 1842, "\u2581\u4f8b": 1843, "\u610f\u601d": 1844, "\u2581\u9519": 1845, "\u7ea6": 1846, "\u2581\u9752": 1847, "\u2581\u4f53\u7cfb": 1848, "\u624d": 1849, "\u4ee4": 1850, "\u2581\u6d88\u8d39": 1851, "\u2581\u98df\u54c1": 1852, "\u2581\u8840": 1853, "\u2581\u5510": 1854, "\u2581\u9636\u6bb5": 1855, "\u2581\u4e0d\u592a": 1856, "\u2581\u6cd5\u56fd": 1857, "\u2581\u4e3b\u52a8": 1858, "ed": 1859, "\u2581\u79cd\u690d": 1860, "\u8eab\u4e0a": 1861, "\u8f6c": 1862, "\u955c": 1863, "\u2581\u4e8b\u5b9e": 1864, "\u2581\u5343": 1865, "\u6b62": 1866, "\u98de": 1867, "\u2581s": 1868, "\u2581\u8c08": 1869, "\u505a": 1870, "\u9aa8": 1871, "\u2581www": 1872, "\u2581\u57fa\u91d1": 1873, "\u5b8c": 1874, "\u2581\u4f24\u5bb3": 1875, "\u25812016": 1876, "\u6740": 1877, "\u613f": 1878, "\u8ddd": 1879, "\u2581\u5185\u90e8": 1880, "\u2581\u53cd\u6b63": 1881, "\u2581\u5de6": 1882, "\u8f6e": 1883, "\u2581\u6bb5": 1884, "\u5317": 1885, "\u2581\u63a8\u5e7f": 1886, "\u2581\u826f\u597d": 1887, "\u4ec1": 1888, "\u65e9": 1889, "\u8138": 1890, "\u258126": 1891, "\u2581\u4e00\u4ef6": 1892, "\u2581in": 1893, "\u2581\u505a\u597d": 1894, "\u2581\u52a0\u5de5": 1895, "\u65b9\u9762": 1896, "\u989d": 1897, "\u517b": 1898, "\u2581\u7edf\u4e00": 1899, "\u2581\u5229\u76ca": 1900, "\u2581\u4fc3\u8fdb": 1901, "\u2581\u5a31\u4e50": 1902, "\u2581\u9875": 1903, "\u2581to": 1904, "\u2581\u83dc": 1905, "\u2581\u4e09\u5e74": 1906, "\u2581\u91cd\u65b0": 1907, "\u90e8\u95e8": 1908, "\u2581\u7a0d": 1909, "\u2581\u540d\u79f0": 1910, "\u2581\u75be\u75c5": 1911, "\u4e34": 1912, "\u2581\u5927\u591a\u6570": 1913, "\u2581\u4f8b\u5982": 1914, "\u5e84": 1915, "\u2581\u4ee3": 1916, "\u2581\u5468\u56f4": 1917, "\u601d": 1918, "\u2581\u989c\u8272": 1919, "\u2581\u53e3": 1920, "\u2581\u6ce8\u518c": 1921, "\u2581\u5e73\u65b9": 1922, "B": 1923, "\u2581\u5de5\u8d44": 1924, "\u2581\u6700\u4f73": 1925, "\u2581\u5047": 1926, "\u2581\u7ecf\u5178": 1927, "\u2019": 1928, "\u7eb8": 1929, "\u4f5b": 1930, "\u2581O": 1931, "\u2581\u7238\u7238": 1932, "\u2581c": 1933, "\u2581\u4e3b\u6301": 1934, "\u4e3b\u4e49": 1935, "\u2581\u627f\u62c5": 1936, "\u2581\u5927\u5c0f": 1937, "\u2581\u6587\u5b57": 1938, "\u9996": 1939, "\u2581\u534e": 1940, "\u2581\u521b\u4f5c": 1941, "\u2581\u6444\u5f71": 1942, "\u2581\u6545": 1943, "\u2581\u9010": 1944, "\u80dc": 1945, "\u2581\u6b4c": 1946, "\u7701": 1947, "\\": 1948, "\u2581\u6301\u7eed": 1949, "\u2581\u732b": 1950, "\u2581\u8bc4": 1951, "\u258101": 1952, "\u901f": 1953, "\u2581\u6210\u5458": 1954, "\u2581b": 1955, "\u2581\u4eb2": 1956, "\u2581\u8336": 1957, "\u2581\u4ec5": 1958, "\u2581\u4fdd\u9669": 1959, "\u67d0\u4e9b": 1960, "\u53f8": 1961, "\u2581\u5927\u9646": 1962, "\u7968": 1963, "\u2581\u8865": 1964, "\u7b14": 1965, "\u2581\u8bb0\u5f55": 1966, "\u2581\u5927\u795e": 1967, "\u2581\u5408\u7406": 1968, "\u2581\u5237": 1969, "\u515a": 1970, "\u2581\u638c\u63e1": 1971, "\u6280\u672f": 1972, "\u2581\u5bfc\u6f14": 1973, "\u2581\u82f9\u679c": 1974, "\u2581\u5b8b": 1975, "\u2581\u5e7f\u5dde": 1976, "\u2581\u521d\u4e2d": 1977, "\u592a": 1978, "\u5c4f": 1979, "\u25812002": 1980, "\u2581\u8bcd": 1981, "\u2581\u8425\u517b": 1982, "\u2581\u6bcd\u4eb2": 1983, "\u2581\u5438\u5f15": 1984, "\u542b": 1985, "\u2581\u4f30\u8ba1": 1986, "\u7b11": 1987, "\u2581\u4f55": 1988, "\u60dc": 1989, "l": 1990, "\u7b49\u5956": 1991, "\u68a6": 1992, "\u2581\u7f16\u8f91": 1993, "\u2581n": 1994, "\u2581p": 1995, "\u4e9a": 1996, "\u2581\u5e97": 1997, "\u2581\u6dd8\u5b9d": 1998, "\u2581\u8fc7\u6765": 1999, "\u2581\u53bf": 2000, "\u2581\u6280\u5de7": 2001, "\u6625": 2002, "\u2581\u652f\u4ed8": 2003, "\u2581\u901a\u5e38": 2004, "\u2581\u604b\u7231": 2005, "\u2581\u6210\u719f": 2006, "\u2581\u6302": 2007, "\u2581\u4e2d\u6587": 2008, "\u2581\u53d8\u5f97": 2009, "\u2581\u5723": 2010, "\u2581\u9999": 2011, "\u7532": 2012, "\u2581\u5148\u540e": 2013, "\u2581W": 2014, "\u2581\u8fd0\u8425": 2015, "\u4ea7": 2016, "\u9752": 2017, "\u6548": 2018, "\u2581\u51e0\u5e74": 2019, "\u6ee1": 2020, "\u2581\u62a5": 2021, "\u2581\u610f\u8bc6": 2022, "\u2581\u519c\u6237": 2023, "\u539f": 2024, "\u2581\u601d\u7ef4": 2025, "\u6bcd": 2026, "\u2581\u96be\u9053": 2027, "\u258170": 2028, "\u2581\u4e0d\u77e5": 2029, "\u68ee": 2030, "\u518c": 2031, "F": 2032, "\u5ddd": 2033, "\u2581\u6765\u770b": 2034, "\u6c64": 2035, "\u2581\u7855\u58eb": 2036, "\u2581\u4e00\u90e8\u5206": 2037, "\u2581\u76d1\u7763": 2038, "\u5bab": 2039, "\u65a4": 2040, "\u2581\u56fa\u5b9a": 2041, "\u96e8": 2042, "\u8c61": 2043, "\u5de5\u7a0b": 2044, "\u2581\u6709\u4e2a": 2045, "\u2581\u53d6": 2046, "\u2581\u5c0f\u5b69": 2047, "\u2581\u51fa\u751f": 2048, "\u2581\u65e5\u5e38": 2049, "\u2581500": 2050, "\u8336": 2051, "\u2581\u51e0\u5929": 2052, "\u2581\u4e24\u5e74": 2053, "\u7b49": 2054, "\u819c": 2055, "\u2581\u6574\u4f53": 2056, "\u2581\u76ee\u5f55": 2057, "\u2581\u786c": 2058, "\u2581\u773c\u775b": 2059, "\u2581\u5fd8": 2060, "\u2581\u6559\u6750": 2061, "\u79c0": 2062, "\u2581\u804a\u5929": 2063, "\u2581\u6570\u91cf": 2064, "\u2581\u653b\u51fb": 2065, "\u2581\u903b\u8f91": 2066, "\u5426": 2067, "\u82f1": 2068, "\u2581\u7279\u5f81": 2069, "\u2581\u6253\u5f00": 2070, "\u4e0d\u5230": 2071, "\u2581\u76f4\u5230": 2072, "\u2581\u7f8e\u597d": 2073, "\u2581\u5076": 2074, "\u2581\u9053\u8def": 2075, "\u2581\u573a": 2076, "\u2581\u60c5\u7eea": 2077, "\u2581\u5207": 2078, "\u2581\u5206\u5e03": 2079, "\u81f4": 2080, "\u2581\u7b2c\u4e03": 2081, "\u2581\u4e00\u5f20": 2082, "\u2581\u591c": 2083, "\u2581\u81f3\u4eca": 2084, "\u751f\u6d3b": 2085, "\u2581\u533b\u5b66": 2086, "\u5de5\u4f5c": 2087, "\u2581\u4f1a\u8bae": 2088, "\u2581\u4e0d\u518d": 2089, "\u5df4": 2090, "\u2581\u9c7c": 2091, "\u2581\u6b22\u8fce": 2092, "\u2581\u6293": 2093, "\u2581\u67e5": 2094, "\u2581\u56de\u5230": 2095, "\u8bd7": 2096, "\u2581\u8df3": 2097, "\u2581\u9876": 2098, "\u9ed1": 2099, "<": 2100, "\u4e71": 2101, "\u2581\u8d22\u52a1": 2102, "\u25812001": 2103, "\u75db": 2104, "\u2581\u5377": 2105, "\u6000": 2106, "\u2581\u8d76": 2107, "\u4e0d\u4e86": 2108, "\u540e\u9762": 2109, "\u2581\u53f6": 2110, "\u2581\u5feb\u4e50": 2111, "\u571f": 2112, "\u25811000": 2113, "\u2581\u653e\u5728": 2114, "\u2581\u4e34\u5e8a": 2115, "\u541b": 2116, "\u2581\u8bdd\u9898": 2117, "\u2581\u96f6": 2118, "\u2581\u6d17": 2119, "\u2581\u6570\u5b57": 2120, "\u2581\u516c\u5171": 2121, "\u2581\u70b9\u51fb": 2122, "\u2581\u8fde\u7eed": 2123, "\u2581\u62d2\u7edd": 2124, "^": 2125, "\u2581g": 2126, "\u9053\u7406": 2127, "\u2581\u5f53\u5730": 2128, "\u2581\u68c0\u6d4b": 2129, "\u2581\u4fee\u6539": 2130, "\u2581\u6982": 2131, "\u2581\u517b": 2132, "\u2581\u9152": 2133, "\u2581\u571f": 2134, "\u2581\u6bcf\u5e74": 2135, "\u2581\u7269\u7406": 2136, "\u66f0": 2137, "\u2581\u5b9e\u529b": 2138, "\u4eae": 2139, "\u2581\u513f\u7ae5": 2140, "\u9519": 2141, "\u2581\u5e74\u9f84": 2142, "\u2581\u5531": 2143, "\u2581\u539f\u7406": 2144, "\u2581\u6df7": 2145, "\u2581\u4f20": 2146, "\u2581\u7248\u672c": 2147, "\u2581\u52a8\u4f5c": 2148, "\u2581\u611f\u5230": 2149, "\u5e93": 2150, "\u2581\u773c": 2151, "\u2581\u5b8c\u7f8e": 2152, "\u2581\u89c4\u8303": 2153, "\u2581\u6295": 2154, "\u5907": 2155, "\u6e56": 2156, "i": 2157, "\u2581\u6ce8": 2158, "\u2581\u8bb0\u5fc6": 2159, "\u94c1": 2160, "\u8c37": 2161, "\u258127": 2162, "\u2581\u7269\u8d28": 2163, "\u6c49": 2164, "\u2581\u624b\u672f": 2165, "\u6ce8": 2166, "\u2581\u8fde\u63a5": 2167, "\u5012": 2168, "\u2581\u4e00\u90e8": 2169, "\u7075": 2170, "\u2581\u52a0\u5f3a": 2171, "\u2581\u6731": 2172, "\u2581\u515a": 2173, "\u2581\u654c": 2174, "\u7ed3\u6784": 2175, "\u2581\u6cb9": 2176, "\u2581\u4e3b\u9898": 2177, "\u2581\u50bb": 2178, "\u2581\u5931\u8d25": 2179, "\u2581\u82f1\u6587": 2180, "\u2581\u4f9d\u7136": 2181, "\u4ea7\u54c1": 2182, "\u4e07": 2183, "\u2581\u6f14\u5458": 2184, "\u2581\u591a\u79cd": 2185, "\u96c5": 2186, "\u2581\u5fc3\u60c5": 2187, "\u2581\u91cd\u5927": 2188, "\u2581\u8f93\u5165": 2189, "\u2581\u5168\u6751": 2190, "\u2581\u517c": 2191, "\u4e0d\u4f4f": 2192, "\u2581\u4f18": 2193, "\u2581\u610f\u89c1": 2194, "\u2581\u5de5\u827a": 2195, "\u2581\u4e2d\u533b": 2196, "\u2581\u8868\u9762": 2197, "\u6bdb": 2198, "\u2581\u641c\u7d22": 2199, "\u5206\u949f": 2200, "\u2581\u5370\u8c61": 2201, "\u2581\u9e21": 2202, "\u2581\u8fd0\u884c": 2203, "\u2581\u5f62\u8c61": 2204, "\u6b66": 2205, "\u2581\u590d\u6742": 2206, "\u2581\u53f0": 2207, "\u5355\u4f4d": 2208, "\u5584": 2209, "\u2581\u62c5\u5fc3": 2210, "\u2581\u6c9f\u901a": 2211, "\u800c\u8a00": 2212, "\u9879\u76ee": 2213, "\u2581\u7537\u6027": 2214, "\u2581\u5065\u8eab": 2215, "\u2581The": 2216, "\u5e1d": 2217, "\u2581\u52a8\u753b": 2218, "\u2581\u513f\u5b50": 2219, "\u2581\u9002\u7528": 2220, "\u2581\u667a\u80fd": 2221, "\u793c": 2222, "\u2581\u7ec3\u4e60": 2223, "\u5927\u5b66\u751f": 2224, "\ue69e": 2225, "\u2581\u5730\u4f4d": 2226, "\u2581\u98df\u7269": 2227, "\u2581\u4e1c\u5317": 2228, "\u2581\u5e7f\u6cdb": 2229, "\u2581\u6062\u590d": 2230, "\u2581\u591a\u6b21": 2231, "\u2581\u7406\u60f3": 2232, "\u4e00\u53ea": 2233, "\u6069": 2234, "\u7259": 2235, "\u2581\u75db\u82e6": 2236, "\u2581\u836f": 2237, "\u2581\u9752\u5e74": 2238, "\u2581\u91cd\u91cf": 2239, "\u2581\u5206\u4e3a": 2240, "\u2581\u5316\u5986": 2241, "\u2192": 2242, "\u978b": 2243, "\u2581\u62a5\u544a": 2244, "\u2581t": 2245, "\u2581\u5fc3\u6001": 2246, "\u2581\u68a6": 2247, "\u2581\u4f53\u73b0": 2248, "\u5730\u533a": 2249, "\u2581\u5224\u65ad": 2250, "\u5fd9": 2251, "\u804c": 2252, "\u7238": 2253, "\u2581\u4f9d": 2254, "\u2581\u7ec6\u8282": 2255, "\u2581\u80e1": 2256, "X": 2257, "\u2581\u5c31\u4e1a": 2258, "\u2581\u5b9a\u4e49": 2259, "\u2581\u7559\u5b66": 2260, "\u2581\u5236\u5b9a": 2261, "\u2581\u5267\u60c5": 2262, "\u2581\u8001\u677f": 2263, "\u2581\u57fa\u5730": 2264, "\u2581\u589e\u957f": 2265, "\u79bb": 2266, "\u2581\u54f2\u5b66": 2267, "\u8d25": 2268, "\u4ea4": 2269, "\u2581\u6f02\u4eae": 2270, "\u2581\u5b9a\u4f4d": 2271, "\u6d88\u8d39\u8005": 2272, "\u2581\u7ed3": 2273, "\u2581\u571f\u5730": 2274, "\u2581\u907f\u514d": 2275, "\u2581\u7ef4\u62a4": 2276, "\u5b81": 2277, "\u2581\u5c4f\u5e55": 2278, "\u2581\u964d\u4f4e": 2279, "\u4f01\u4e1a": 2280, "\u8db3": 2281, "\u2581\u5f52": 2282, "\u2581\u6218\u6597": 2283, "f": 2284, "\u5947": 2285, "\u2581\u751f\u6001": 2286, "\u5c31": 2287, "\u2581\u82e6": 2288, "\u8d35": 2289, "\u9650": 2290, "\u2581\u7edf\u8ba1": 2291, "\u73a9": 2292, "\u2581\u8d85\u7ea7": 2293, "\u2581\u4e24\u79cd": 2294, "\u2581\u4fdd\u969c": 2295, "\u2581\u53d1\u884c": 2296, "\u2581\u5956": 2297, "\u2581\u60f3\u60f3": 2298, "\u2581\u70e7": 2299, "\u2581\u9000": 2300, "\u2581\u8d5a": 2301, "\u2581\u7a7a": 2302, "\u542c\u5230": 2303, "\u2581\u4e00\u751f": 2304, "\u2581\u54c8\u54c8\u54c8": 2305, "\u2581\u7559\u4e0b": 2306, "\u2581\u62cd\u6444": 2307, "|": 2308, "\u2581\u5931": 2309, "P": 2310, "\u2581\u6587\u660e": 2311, "\u2581\u589e": 2312, "\u2581\u77e5\u540d": 2313, "\u2581\u4f1a\u8ba1": 2314, "\u2581\u6b7b\u4ea1": 2315, "\u9080": 2316, "\u5c06": 2317, "\u2581\u592a\u9633": 2318, "\u2581\u94f6": 2319, "\u2581\u8282\u76ee": 2320, "\u7cd6": 2321, "\u2581\u6df1\u5733": 2322, "\u2581ISBN": 2323, "\u65ad": 2324, "\u2581\u6c99": 2325, "\u798f": 2326, "\u2581\u518d\u6b21": 2327, "\u8c08": 2328, "\u2581\u6848\u4f8b": 2329, "\u96ea": 2330, "\u86cb": 2331, "\u2581\u603b\u7ed3": 2332, "\u2581\u4fee": 2333, "\u2581\u590d": 2334, "\u258132": 2335, "\u2581\u97e9": 2336, "\u2581\u4e71": 2337, "\u2581\u966a": 2338, "\u5c5e": 2339, "\u4e0d\u8d77": 2340, "\u6df1": 2341, "\u2581\u5f04": 2342, "\u2581\u6295\u5165": 2343, "\u2581\u8bd5": 2344, "\u56db": 2345, "\u8f88": 2346, "\u2581\u8bfb\u8005": 2347, "\u2581\u96c6\u4e2d": 2348, "\u2581\u9898": 2349, "\u2581\u8bba": 2350, "\u725b": 2351, "\u2581\u5b8c\u5584": 2352, "\u96f7": 2353, "\u2581\u89c4\u6a21": 2354, "\u2581\u65b9\u6848": 2355, "\u2581\u5bbf\u820d": 2356, "\u2581\u8fd9\u4e00": 2357, "\u54e5": 2358, "\u2581\u6d41\u884c": 2359, "\u2581\u5973\u513f": 2360, "\u2581\u65e7": 2361, "\u2581\u5f90": 2362, "\u2581\u89c6": 2363, "\u2581\u5398\u7c73": 2364, "\u2581\u4e22": 2365, "\u2581\u5931\u53bb": 2366, "\u2581\u65e2\u7136": 2367, "\u2581\u60ca": 2368, "\u2581\u79d2": 2369, "\u2581300": 2370, "\u5931": 2371, "\u2581\u5929\u5929": 2372, "\u2581\u59d1\u5a18": 2373, "\u2581\u5e38\u89c1": 2374, "\u2581\u4e0d\u5f97": 2375, "\u90ce": 2376, "\u2581\u53cd\u5bf9": 2377, "\u7d27": 2378, "\u2581\u5347\u7ea7": 2379, "\u2018": 2380, "\u2581\u6240\u5728": 2381, "\u7adf": 2382, "\u529f": 2383, "\u2581\u7adf": 2384, "\u2581\u6613": 2385, "\u5bb6\u4eba": 2386, "\u2581\u73b0\u573a": 2387, "\u2581\u9053\u5fb7": 2388, "\u620f": 2389, "\u2581\u5b98": 2390, "\u2581\u9650\u5236": 2391, "\u2581\u660e\u786e": 2392, "\u77e5\u8bc6": 2393, "\u2581\u4e45": 2394, "\u5bfa": 2395, "\u4e0d\u4e0a": 2396, "\u2581\u6218\u4e89": 2397, "\u2581\u76f8\u6bd4": 2398, "\u2581\u9519\u8bef": 2399, "\u2581\u7c97": 2400, "\u2581\u9002\u5e94": 2401, "\u2581\u6df1\u5165": 2402, "\u2581\u4e00\u8fb9": 2403, "\u914d": 2404, "t": 2405, "\u5c55": 2406, "\u5174": 2407, "\u2581\u52a8\u529b": 2408, "\u4eea": 2409, "\u2581\u9080\u8bf7": 2410, "\u2581\u60f3\u8c61": 2411, "\u2581\u53ca\u65f6": 2412, "\u2581\u5b66\u79d1": 2413, "\u866b": 2414, "\u258100": 2415, "\u56f4": 2416, "\u2581\u7eb8": 2417, "\u258129": 2418, "\u2581\u5b9e\u7528": 2419, "\u8239": 2420, "\u2022": 2421, "\u2581\u8d5b": 2422, "\u2581\u574f": 2423, "\u2581\u6210\u5c31": 2424, "\u2581\u5145\u5206": 2425, "\u2581\u4ee3\u7406": 2426, "\u5b66\u4f4d": 2427, "\u2581\u4e13\u95e8": 2428, "\u2581\u4f20\u64ad": 2429, "\u7801": 2430, "\u2581\u4fdd": 2431, "\u2581\u590f": 2432, "\u5999": 2433, "\u6392": 2434, "\u2581\u5b89\u6392": 2435, "\u2581\u6b4c\u66f2": 2436, "\u2581\u8d39\u7528": 2437, "v": 2438, "\u9192": 2439, "\u2581\u68a6\u60f3": 2440, "\u5f02": 2441, "\u2581\u8db3\u7403": 2442, "\u2581\u79c1": 2443, "\u81e3": 2444, "\u2581\u6700\u65b0": 2445, "\u2581\u7edd": 2446, "\u5178": 2447, "\u2581\u7814\u53d1": 2448, "\u2581\u665a": 2449, "\u2581\u4fe1\u53f7": 2450, "\u73b0": 2451, "\u2581\u9ad8\u5ea6": 2452, "\u2581\u9752\u6625": 2453, "\u6cc9": 2454, "\u2581\u51b2": 2455, "\u2581\u5c1d\u8bd5": 2456, "\u2581\u96be\u4ee5": 2457, "\u2581\u6d41": 2458, "\u55ef": 2459, "\u2581\u5269": 2460, "\u2581\u53e4\u4ee3": 2461, "\u5199": 2462, "\u7956": 2463, "\u2581\u4eba\u5747": 2464, "H": 2465, "\u2581\u9632": 2466, "\u2581\u9634": 2467, "\u5f92": 2468, "\u673a\u6784": 2469, "\u2581\u7ffb\u8bd1": 2470, "\u2581\u8ba4\u8bc1": 2471, "\u2581\u7535\u6e90": 2472, "\u2581\u8f6f": 2473, "\u2581\u53f3": 2474, "\u676f": 2475, "\u2581\u5b9e\u4e60": 2476, "\u2581\u5e7f\u5927": 2477, "\u767e": 2478, "\u2581\u65f6\u5c1a": 2479, "\u67aa": 2480, "\u2581\u6392": 2481, "\u2581\u521a\u521a": 2482, "\u2581\u642d": 2483, "\u2581\u5357\u4eac": 2484, "\u2581\u5e74\u5ea6": 2485, "\u258135": 2486, "\u2581f": 2487, "\u2581\u73b0\u6709": 2488, "\u2581\u80fd\u91cf": 2489, "\u2581\u5de8\u5927": 2490, "\u626c": 2491, "\u2581\u5c0a\u91cd": 2492, "\u2581\u5bb6\u957f": 2493, "\u2581\u6218": 2494, "\u5347": 2495, "\u2581\u7c89\u4e1d": 2496, "\u2581\u5fcd": 2497, "\u2581\u5904\u4e8e": 2498, "\u2581\u76d0": 2499, "\u7d22": 2500, "\u2581\u5145\u6ee1": 2501, "\u2581\u6821\u56ed": 2502, "r": 2503, "\u2581\u8d5a\u94b1": 2504, "\u2581\u5b97\u6559": 2505, "\u2581\u516c\u5f00": 2506, "\u5e02\u573a": 2507, "\u63a7": 2508, "\u4f4e": 2509, "\u2581\u534f\u8c03": 2510, "\u2581\u6c64": 2511, "\u2581\u6d89\u53ca": 2512, "\u2581\u4f53": 2513, "\u2581\u4e13\u8f91": 2514, "\u2581\u4e2d\u95f4": 2515, "\u2581\u5730\u7403": 2516, "\u2581\u5404\u4e2a": 2517, "\u2581\u65c5\u884c": 2518, "\u2581\u7247": 2519, "\u2581\u89c2\u4f17": 2520, "\u4f2f": 2521, "\u5c3d": 2522, "\u672b": 2523, "\u2581\u521b\u5efa": 2524, "\u8fd0": 2525, "\u2581\u5341\u4e8c": 2526, "\u63a5": 2527, "\u2581\u6ee1": 2528, "\u653f": 2529, "\u9500": 2530, "\u821e": 2531, "\u2581\u5c71\u4e1c": 2532, "\u7cbe": 2533, "\u2581\u5bb3": 2534, "\u2581\u5b9d\u5b9d": 2535, "\u4fdd": 2536, "\u2581\u6742\u5fd7": 2537, "\u2581\u4e00\u672c": 2538, "\u2581\u4f18\u8d28": 2539, "\u2581\u51ac": 2540, "\u4fee": 2541, "\u2581\u4f9b": 2542, "\u2581\u4ece\u5c0f": 2543, "\u2581\u968f\u4fbf": 2544, "\u2581\u7cfb": 2545, "\u80a1": 2546, "\u2581\u6709\u65f6": 2547, "\u2581\u5e7f": 2548, "\u2581\u4e00\u573a": 2549, "\u72d7": 2550, "\u6653": 2551, "\u2581\u5b64\u72ec": 2552, "\u2581\u8010": 2553, "\u2581\u4ee4\u4eba": 2554, "\u2581\u7ec6": 2555, "\u2581\u5730\u5740": 2556, "\u5e9c": 2557, "\u2581\u8f7b\u677e": 2558, "\u7ef4": 2559, "\u2581\u7f8e\u672f": 2560, "\u2581\u4e25\u683c": 2561, "\u4f73": 2562, "\u2581\u6574": 2563, "\u2581\u5de8": 2564, "\u771f": 2565, "\u80fd\u529b": 2566, "\u2581\u6015": 2567, "\u2581\u4e0b\u8f7d": 2568, "\u2581\u666e\u904d": 2569, "\u2581\u6297": 2570, "\u8d44": 2571, "\u2581\u63d0\u95ee": 2572, "\u2581\u6539\u5584": 2573, "\u2581....": 2574, "\u2581\u7761\u89c9": 2575, "\u2581\u5347": 2576, "\u2581\u6bd4\u4f8b": 2577, "\u2581\u5185\u5b58": 2578, "\u670d\u52a1": 2579, "\u2581\u529f": 2580, "al": 2581, "\u65e8": 2582, "\u8ff7": 2583, "\u2581\u7834": 2584, "\u2581\u6709\u7740": 2585, "\u2581\u63d2": 2586, "\u2581\u9f50": 2587, "\u2581\u6b66": 2588, "\u56e0": 2589, "\u8bc6": 2590, "\u2581\u56f0\u96be": 2591, "\u8bd5": 2592, "\u2581\u804c": 2593, "\u2581\u9884": 2594, "\u2581\u7f8e\u4e3d": 2595, "\u2581\u72ec\u7279": 2596, "\u2581\u6e29\u5ea6": 2597, "\u2581\u72ec": 2598, "\u5251": 2599, "\u2581\u7092": 2600, "\u2581\u5916\u56fd": 2601, "\u82d7": 2602, "\u2581\u8fdb\u4e00\u6b65": 2603, "\u2581\u7d20\u8d28": 2604, "\u2581\u7bc7": 2605, "\u2581\u5965": 2606, "\u2581\u7686": 2607, "\u2581\u8054": 2608, "\u94fa": 2609, "\u2581\u4e9a": 2610, "\u2581\u8ba8\u538c": 2611, "\u25812015": 2612, "\u58c1": 2613, "\u5171": 2614, "\u2581#": 2615, "\u2581\u6253\u7b97": 2616, "\u9001": 2617, "\u2581\u5217": 2618, "\u2581\u8349": 2619, "\u2581\u751f\u957f": 2620, "\u2581\u540c\u610f": 2621, "\u2581\u8fd0\u7528": 2622, "\u7834": 2623, "\u987a": 2624, "\u2581\u9b54": 2625, "\u2581\u6392\u540d": 2626, "\u2581\u7b54\u4e3b": 2627, "\u59d4": 2628, "\u2581\u5b59": 2629, "\u60e0": 2630, "\u2581\u89c2\u5bdf": 2631, "\u2581\u5408\u540c": 2632, "\u9762\u524d": 2633, "\u2581\u8f93\u51fa": 2634, "\u67e5": 2635, "\u2581\u5fb7": 2636, "\u73af": 2637, "\u5e7f": 2638, "\u2581\u602a": 2639, "\u2581\u5c3d\u91cf": 2640, "\u2581\u7ec6\u80de": 2641, "\u2581\u771f\u5fc3": 2642, "\u2581\u4eba\u4f53": 2643, "\u2581\u9a97": 2644, "\u2581U": 2645, "\u9505": 2646, "\u2581\u62bd": 2647, "\u2581\u8fdb\u6b65": 2648, "\u2581\u7ec4\u5408": 2649, "\u2581QQ": 2650, "\u2581\u53ef\u7231": 2651, "\u2581\u753b\u9762": 2652, "\u5468": 2653, "\u2581\u7535\u89c6\u5267": 2654, "\u2581\u5706": 2655, "\u2581\u897f\u65b9": 2656, "\u2581\u6253\u9020": 2657, "\u5343": 2658, "\u258145": 2659, "\u5e8f": 2660, "\u2588": 2661, "\u2581\u60c5\u611f": 2662, "\u51fb": 2663, "\u2581\u5c45\u4f4f": 2664, "\u2581\u540c\u4e00": 2665, "\u2581\u5f15": 2666, "\u2581\u7b49\u7ea7": 2667, "\u2581\u5174": 2668, "\u5207": 2669, "\u2581\u5546\u52a1": 2670, "\u2581\u5e7f\u4e1c": 2671, "\u2581\u7a7a\u6c14": 2672, "\u2581\u6cb3": 2673, "\u2581\u5bf9\u6bd4": 2674, "\u5b66\u6821": 2675, "\u2581\u7fa4\u4f17": 2676, "\u2581\u4e2d\u534e": 2677, "\u2581\u6beb\u7c73": 2678, "\u6e38": 2679, "\u2581\u76f8\u4e92": 2680, "\u6eaa": 2681, "\u2581\u8054\u5408": 2682, "\u2581\u83ab": 2683, "\u2581\u6d59\u6c5f": 2684, "\u9000": 2685, "\u7a0e": 2686, "\u9760": 2687, "\u2581\u7a81\u51fa": 2688, "\u2581\u836f\u7269": 2689, "\u65e5\u671f": 2690, "\u2581\u6298": 2691, "\u2581\u65bd\u5de5": 2692, "\u9e21": 2693, "\u25811999": 2694, "\u2581\u56db\u5ddd": 2695, "\u2581\u673a\u5173": 2696, "\u2581\u5947": 2697, "\u2581\u624b\u6bb5": 2698, "\u817e": 2699, "\u2581\u5267": 2700, "\u2581\u611f\u52a8": 2701, "\u2581\u666f": 2702, "\u2581\u8fc5\u901f": 2703, "\u6027\u8d28": 2704, "\u2581\u5929\u4e0b": 2705, "\u2581\u4e0d\u8db3": 2706, "\u4f26": 2707, "\u2581\u8bd5\u9a8c": 2708, "on": 2709, "\u2581\u5df4": 2710, "\u4f19\u4f34": 2711, "\u2581\u7231\u597d": 2712, "\u25cf": 2713, "\u2581\u914d\u7f6e": 2714, "\u2581\u7b2c\u516b": 2715, "\u949f": 2716, "\u2581\u8d35": 2717, "\u2581\u4e0d\u7b97": 2718, "\u2581\u4fbf\u5b9c": 2719, "\u2581\u66f4\u662f": 2720, "\u2581\u7269\u6d41": 2721, "\u2581\u5144\u5f1f": 2722, "\u2581\u8eab\u4efd": 2723, "\u2581\u5305\u88c5": 2724, "\u2581\u62a2": 2725, "\u2581PS": 2726, "\u52d2": 2727, "\u8865": 2728, "\u2581\u524d\u9762": 2729, "\u2581\u7b14": 2730, "\u2581\u5439": 2731, "\u2581\u5e38\u7528": 2732, "in": 2733, "\u2581\u4e0a\u8bfe": 2734, "\u2581\u5f02": 2735, "\u2581\u6a21\u578b": 2736, "\u2581\u795e\u7ecf": 2737, "\u2581\u627f\u8ba4": 2738, "\u2581\u7c89": 2739, "\u8bfa": 2740, "\u2581\u5927\u4f17": 2741, "\u9875": 2742, "\u2581\u53cc\u65b9": 2743, "\u2581\u5e7c\u513f": 2744, "\u4eba\u6c11\u653f\u5e9c": 2745, "\u2581\u6211\u5988": 2746, "h": 2747, "\u2581\u804a": 2748, "\u2581\u98de\u673a": 2749, "\u4f5c\u7528": 2750, "\u2581\u5c11\u5e74": 2751, "\u2581\u8c31": 2752, "\u2581\u5475\u5475": 2753, "\u2581\u8eab\u9ad8": 2754, "\u5c3e": 2755, "\u2581\u5bfb\u627e": 2756, "\u2581\u6784\u6210": 2757, "\u2581\u56f4": 2758, "\u85cf": 2759, "\u2581\u884c\u52a8": 2760, "\u2581\u6625": 2761, "\u2581i": 2762, "\u6012": 2763, "\u2581\u914d\u5408": 2764, "\u2581\u5473\u9053": 2765, "\u2581\u51a0\u519b": 2766, "\u5bb9": 2767, "\u2581\u8363\u8a89": 2768, "\u2581\u6f2b\u753b": 2769, "\u2581\u5c55\u793a": 2770, "L": 2771, "\u2581\u9ad8\u901f": 2772, "\u5bfc": 2773, "\u2581\u7fa4": 2774, "\u2581\u51c6\u786e": 2775, "\u2581\u6743\u5229": 2776, "\u5bcc": 2777, "\u2581\u906d": 2778, "\u8111": 2779, "\u2581\u88c5\u4fee": 2780, "\u2581\u6c11\u4e3b": 2781, "\u2581\u8868\u6f14": 2782, "\u2581\u5751": 2783, "\u667a": 2784, "\u2581\u516c\u4f17": 2785, "\u5b54": 2786, "\u2581\u76ae": 2787, "\u2581\u4f4f\u623f": 2788, "\u8425": 2789, "\u2581\u9769\u547d": 2790, "\u2581\u542c\u8bf4": 2791, "\u5899": 2792, "\u258131": 2793, "\u2581v": 2794, "\u2581\u8bed": 2795, "\u9f50": 2796, "\u5eb7": 2797, "\u2581\u597d\u5403": 2798, "\u4ea7\u4e1a": 2799, "\u2581you": 2800, "\u2581\u54c8": 2801, "\u2581\u5389": 2802, "\u2581\u62db": 2803, "\u2581\u793c": 2804, "z": 2805, "\u2581\u5c42": 2806, "\u2581\u5177\u5907": 2807, "\u2581\u7eff": 2808, "\u2581\u5468\u8fb9": 2809, "\u6cfd": 2810, "\u5e8a": 2811, "\u8bc4": 2812, "\u8bbe\u5907": 2813, "\u677e": 2814, "\u2581\u7406\u4e8b": 2815, "\u8fde": 2816, "\u53e4": 2817, "\u95fb": 2818, "N": 2819, "\u2581\u6709\u8da3": 2820, "\u5217": 2821, "\u2581\u6709\u6240": 2822, "\u2581\u6e29": 2823, "\u51c6": 2824, "\u2581\u751f\u4e8e": 2825, "\u2581\u9762\u8bd5": 2826, "\u2581\u4e92\u76f8": 2827, "\u7559": 2828, "\u2581\u996d": 2829, "\u2581\u5077": 2830, "\u2581\u653b": 2831, "\u2581\u5982\u4eca": 2832, "\u2581\u519b": 2833, "\u2581\u5c0f\u7c73": 2834, "\u5ca9": 2835, "\u2581\u6df1\u523b": 2836, "\u2581\u66f2": 2837, "\u2581\u76f8\u540c": 2838, "\u4f59": 2839, "\u2581\u59cb\u7ec8": 2840, "\u2581\u8272\u5f69": 2841, "\u60f3\u8d77": 2842, "\u2581\u4e0a\u73ed": 2843, "\u2581\u8d44\u672c": 2844, "\u2581\u5b8c\u6574": 2845, "\u2581\u8857": 2846, "\u2581\u6ca1\u60f3": 2847, "\u2581\u6d88\u606f": 2848, "\u25811998": 2849, "\u2581\u957f\u5927": 2850, "\u4f17": 2851, "\u2581\u5f88\u96be": 2852, "\u5bc6": 2853, "\u6001": 2854, "\u2581\u8bf4\u6cd5": 2855, "\u5e86": 2856, "\u2581\u719f\u6089": 2857, "\u2581\u7ec3": 2858, "\u2581\u51cf\u80a5": 2859, "\u2581\u706b\u8f66": 2860, "\u6e2f": 2861, "\u8ba4": 2862, "\u2581\u90d1": 2863, "\u2581\u5fc3\u4e2d": 2864, "\u2581\u622a": 2865, "\u2581\u5634": 2866, "\u2581\u9ebb\u70e6": 2867, "\u2581\u5173\u5fc3": 2868, "\u2581\u987a": 2869, "\u2581\u5a5a\u59fb": 2870, "\u2581\u5ba2\u89c2": 2871, "\u660c": 2872, "\u2581\u6a21\u62df": 2873, "\u2581\u7206": 2874, "\u2581\u56de\u5fc6": 2875, "\u2581\u8def\u4e0a": 2876, "\u2581\u539a": 2877, "\u2581\u6f14\u5531": 2878, "\u2581\u7528\u6765": 2879, "\u2581\u9b3c": 2880, "\u2581\u5e73\u8861": 2881, "\u2581\u5410": 2882, "\u2581\u94fe\u63a5": 2883, "\u2581\u6279\u51c6": 2884, "\u258108": 2885, "\u2581\u505c": 2886, "\u2581\u8003\u7814": 2887, "\u2581\u5b66\u5386": 2888, "\u2581\u7279\u6027": 2889, "\u516b": 2890, "\u59b9": 2891, "\u2581\u90ed": 2892, "\u5e01": 2893, "\u2581\u5730\u7406": 2894, "\u8109": 2895, "us": 2896, "\u2581\u6323": 2897, "\u2581\u77ac\u95f4": 2898, "\u5f81": 2899, "\u8bae": 2900, "\u2581\u72b6\u51b5": 2901, "\u2581\u5370": 2902, "\u2581\u5934\u53d1": 2903, "\u2581\u5783\u573e": 2904, "\u2581h": 2905, "\u520a": 2906, "\u745e": 2907, "\u2581\u56de\u590d": 2908, "\u2581\u5728\u7ebf": 2909, "\u6bd2": 2910, "\u2581\u6587\u827a": 2911, "\u2581\u811a": 2912, "\u70ae": 2913, "\u2581\u5927\u591a": 2914, "\u4eba\u6570": 2915, "\u6c99": 2916, "\u8d28\u91cf": 2917, "\u2581\u5b9d": 2918, "\u5bf8": 2919, "\u2581\u914d\u5957": 2920, "\u2581\u8131": 2921, "\u2581\u5e73\u65b9\u516c": 2922, "\u2581\u5371\u9669": 2923, "\u9876": 2924, "\u4e95": 2925, "\u82e5": 2926, "\u2581\u8015\u5730": 2927, "\u82e6": 2928, "\u7565": 2929, "\u2581\u53bb\u5e74": 2930, "\u5b88": 2931, "\u2581\u4e00\u5757": 2932, "\u2581\u62d6": 2933, "\u2581\u5178\u578b": 2934, "\u4e3e": 2935, "\u2581\u56db\u4e2a": 2936, "\u2581\u4ed8\u51fa": 2937, "\u5531": 2938, "\u604b": 2939, "\u8363": 2940, "GB": 2941, "\u6d1e": 2942, "\u2581\u7eff\u8272": 2943, "\u2581\u610f\u5927\u5229": 2944, "\u9898\u76ee": 2945, "\u2581\u5f3a\u70c8": 2946, "\u2581\u671d": 2947, "\u2581\u4e3e\u529e": 2948, "\u4f3c": 2949, "\u2581\u6234": 2950, "\u2581\u6d41\u7a0b": 2951, "\u8d1f": 2952, "\u5e05": 2953, "\u2581\u5e73\u88c5": 2954, "\u2581\u524d\u63d0": 2955, "\u2581\u8054\u76df": 2956, "\u4e39": 2957, "\u6807": 2958, "\u2581\u91cd\u5e86": 2959, "\u2581\u5448": 2960, "\u2581\u6210\u679c": 2961, "\u6536": 2962, "\u2581\u5355\u7eaf": 2963, "\u2581\u7a76": 2964, "\u2581\u4e2a\u6027": 2965, "\u2581\u5435": 2966, "\u2581vedio": 2967, "\u5f31": 2968, "\u2581\u53d1\u6325": 2969, "\u7236": 2970, "\u5a18": 2971, "\u2581\u4e00\u5957": 2972, "\u2581\u80f8": 2973, "\u2581\u51b0": 2974, "\u2581\u519b\u4e8b": 2975, "\u2581\u4f17\u591a": 2976, "\u2581\u5341\u5e74": 2977, "\u2581\u5c3d": 2978, "\u2581\u817f": 2979, "\u2581\u6d3e": 2980, "\u2581\u5de5": 2981, "\u2581\u4ee3\u7801": 2982, "\u2581\u8212\u670d": 2983, "\u2581\u54c1\u79cd": 2984, "\u2581\u751f\u5b58": 2985, "\u7cfb\u5217": 2986, "\u2581\u5f00\u653e": 2987, "\u2581\u5929\u6d25": 2988, "\u2581\u76d6": 2989, "\u4e00\u65b9\u9762": 2990, "\u6c34\u5e73": 2991, "\u2581\u9ad8\u6821": 2992, "\u2581\u7fa4\u4f53": 2993, "\u2581\u8d44\u4ea7": 2994, "\u2581\u6697": 2995, "\u2581\u7537\u5973": 2996, "\u2581\u4f0a": 2997, "\u2581\u6210\u90fd": 2998, "\u2581\u4f53\u91cd": 2999, "\u2581\u5b58\u50a8": 3000, "\u7ecf\u6d4e": 3001, "\u2581\u81ea\u4fe1": 3002, "\u9910": 3003, "\u2581\u76f8\u5e94": 3004, "\u2581\u4f5c\u4e1a": 3005, "\u2581\u5199\u4f5c": 3006, "\u2581\u4ff1\u4e50\u90e8": 3007, "\u2581\u7684\u786e": 3008, "\u2581\u8de8": 3009, "\u258106": 3010, "\u8f7d": 3011, "\u2581\u4e0b\u5348": 3012, "\u719f": 3013, "\u2581\u4e0a\u5e02": 3014, "\u2581\u523a\u6fc0": 3015, "\u2581\u51ed": 3016, "\u652f": 3017, "\u4e0d\u8fc7": 3018, "\u2581\u6881": 3019, "\u2581\u4e11": 3020, "\u258109": 3021, "\u2581\u673a\u5236": 3022, "\u2581\u6ee1\u610f": 3023, "\u4eb2": 3024, "\u2581\u9a6c\u4e0a": 3025, "\u2581\u716e": 3026, "\u2581\u996e\u98df": 3027, "\u4f53\u7cfb": 3028, "\u2581\u54c1\u8d28": 3029, "\u2581\u5973\u5b69\u5b50": 3030, "\u2581\u5b98\u65b9": 3031, "\u94fe": 3032, "\u6211": 3033, "\u2581\u8d21\u732e": 3034, "\u5a01": 3035, "\u2581\u53f2": 3036, "\u2581\u7a81\u7834": 3037, "\u8d8a": 3038, "\u2581\u88c5\u5907": 3039, "\u2581\u7ea0": 3040, "\u2581\u80d6": 3041, "\u2581\u6e38": 3042, "\u2581\u7814\u7a76\u6240": 3043, "\u8d24": 3044, "\u258107": 3045, "\u2581\u4e58": 3046, "\u2581\u7ecf\u6d4e\u5b66": 3047, "\u602a": 3048, "\u2581\u8fd9\u90e8": 3049, "\u8fea": 3050, "\u2581\u8bef": 3051, "\u2581\u6563": 3052, "\u2581\u7b2c\u4e5d": 3053, "\u5cb8": 3054, "\u2581\u4e00\u6b65": 3055, "\u2581\u79e6": 3056, "\u2581\u6311\u6218": 3057, "or": 3058, "\u2581\u671f\u5f85": 3059, "\u2581\u65e9\u4e0a": 3060, "\u2581\u4e3b\u5e2d": 3061, "\u57df": 3062, "\u2581\u58f0": 3063, "\u2581\u98ce\u666f": 3064, "\u2581\u670d\u88c5": 3065, "\u2581\u9633\u5149": 3066, "\u8d44\u6e90": 3067, "\u6559\u5e08": 3068, "\u6770": 3069, "\u4e01": 3070, "\u2581\u96f7": 3071, "\u2581\u86ee": 3072, "\u864e": 3073, "ly": 3074, "\u2581\u6c38": 3075, "\u2581\u8d44\u683c": 3076, "\u7f18": 3077, "\u4e3b\u4efb": 3078, "\u5403": 3079, "\u2581\u793e": 3080, "\u516d": 3081, "\u4f5c\u54c1": 3082, "\u73af\u5883": 3083, "\u590d": 3084, "\u6e29": 3085, "\u2581\u6a2a": 3086, "\u2581\u8fd8\u4f1a": 3087, "\u258103": 3088, "\u2581\u6389": 3089, "\u2581\u8bc4\u4f30": 3090, "\u2581Z": 3091, "\u2581\u6f14\u51fa": 3092, "\u7238\u5988": 3093, "\u4f1f": 3094, "\u535a": 3095, "\u764c": 3096, "\u9675": 3097, "\u2581\u8001\u516c": 3098, "\u2581\u767b": 3099, "\u5409": 3100, "\u2581\u51fa\u56fd": 3101, "\u2581\u89c4\u5219": 3102, "\u2581\u94dc": 3103, "\u987f": 3104, "\u2581\u73bb\u7483": 3105, "\u258105": 3106, "\u534a": 3107, "\u2581\u4f18\u5316": 3108, "\u2581\u7ef4\u4fee": 3109, "\u61c2": 3110, "\u2581\u65c1\u8fb9": 3111, "\u66fc": 3112, "\u2581\u8001\u5a46": 3113, "\u2581\u660e\u661f": 3114, "\u74e6": 3115, "\u2581\u5916\u9762": 3116, "\u2581\u77db\u76fe": 3117, "\u25811997": 3118, "\u2581\u667a\u6167": 3119, "\u7d2f": 3120, "\u2581\u6536\u76ca": 3121, "\u2581\u4e24\u4eba": 3122, "\u2581\u6dfb\u52a0": 3123, "\u539a": 3124, "\u7237": 3125, "\u25811.5": 3126, "\u2581\u5f71\u7247": 3127, "\u2581\u62a5\u9053": 3128, "\u2581\u96ea": 3129, "\u2581\u7f3a\u4e4f": 3130, "\u2581\u529e\u7406": 3131, "\u2581\u5c34\u5c2c": 3132, "\u2581\u548c\u8c10": 3133, "\u8bad": 3134, "\u2581\u5fc3\u7406\u5b66": 3135, "\u2581\u91c7\u53d6": 3136, "\u2581\u91d1\u5c5e": 3137, "\u2581\u5c01": 3138, "\u2581\u5141\u8bb8": 3139, "\u533b": 3140, "\u6cf0": 3141, "\u2581\u7b56\u7565": 3142, "\u2581\u5ba2": 3143, "\u306e": 3144, "\u5b87": 3145, "\u2581\u53cd\u6620": 3146, "\u2581\u8001\u4eba": 3147, "\u76db": 3148, "\u6717": 3149, "\u5356": 3150, "\u5f39": 3151, "\u2581\u57ce": 3152, "\u2581\u8bba\u575b": 3153, "\u6279": 3154, "\u6597": 3155, "\u2581\u5e03": 3156, "\u2581\u8bfe": 3157, "\u7ec6\u80de": 3158, "\u2581\u6751\u6c11": 3159, "\u2581\u5730\u94c1": 3160, "\u7ec4\u7ec7": 3161, "\u2581\u500d": 3162, "\u2581\u5370\u5ea6": 3163, "\u542c": 3164, "\u2581\u516c\u56ed": 3165, "\u2581\u5dee\u5f02": 3166, "\u2581\u54c8\u54c8": 3167, "\u2581\u5c11\u6570": 3168, "\u8ba9": 3169, "\u6781": 3170, "\u2581\u4e3b\u7ba1": 3171, "\u2581\u589e\u5f3a": 3172, "\u2581\u8d2d\u7269": 3173, "\u2581\u4f11\u95f2": 3174, "cm": 3175, "\u5c0f\u8bf4": 3176, "\u4ea1": 3177, "\u9ec4": 3178, "\u2581\u623f\u5730\u4ea7": 3179, "\u2581\u597d\u5947": 3180, "\u2581\u7b56\u5212": 3181, "\u2581\u73af\u4fdd": 3182, "\u606f": 3183, "\u95ee\u9898": 3184, "\u2581Q": 3185, "\u9b3c": 3186, "\u80ce": 3187, "\u2581\u535a": 3188, "\u2581\u5438\u6536": 3189, "\u89c9": 3190, "\u2581Windows": 3191, "\u2581\u4e00\u65e6": 3192, "\u2581\u5fc5\u7136": 3193, "\u2581\u8dd1\u6b65": 3194, "\u2581\u641c": 3195, "\u672a": 3196, "\u2581\u6e56\u5357": 3197, "\u59c6": 3198, "\u2581\u6765\u5230": 3199, "\u2581Y": 3200, "\u2581\u8d22\u653f": 3201, "\u5a1c": 3202, "\u2581\u5927\u5e08": 3203, "\u5f69": 3204, "\u2581\u623f\u95f4": 3205, "\u2581\u6548\u7387": 3206, "\u8ff9": 3207, "\u8273": 3208, "\u2581\u516c\u8def": 3209, "\u2581\u5f53\u4ee3": 3210, "\u6ca1": 3211, "\u2581\u672c\u8d28": 3212, "\u2581\u88c5\u9970": 3213, "\u2581\u53c2": 3214, "\u2581\u6d41\u91cf": 3215, "\u2581\u719f": 3216, "\u2581\u6d6a\u8d39": 3217, "\u2581\u6821": 3218, "\u6068": 3219, "O": 3220, "\u2581\u6628\u5929": 3221, "\u54c8": 3222, "\u2581\u51fa\u53e3": 3223, "\u2581\u4f5b": 3224, "\u2581\u5496\u5561": 3225, "\u2581\u538b": 3226, "\u25811.2": 3227, "\u2581\u7ed9\u4e88": 3228, "\u2581\u82af\u7247": 3229, "\u6563": 3230, "\u2581\u611f\u67d3": 3231, "\u70df": 3232, "\u2581\u7d2f": 3233, "\u5e99": 3234, "\u2581\u9c9c": 3235, "\u5fe0": 3236, "\u2581\u9ec4\u91d1": 3237, "\u2581\u5bfc\u5e08": 3238, "\u2581\u6000": 3239, "\u2581\u63a8\u8fdb": 3240, "\u9e1f": 3241, "\u2581\u9014": 3242, "\u2581\u5927\u5927": 3243, "\u8d2d": 3244, "\u2581\u5426\u5219": 3245, "\u2581\u544a": 3246, "\u4fbf": 3247, "\u2581\u793e\u4ea4": 3248, "\u2581\u6495": 3249, "\u827a": 3250, "\u2581\u953b\u70bc": 3251, "\u2581\u51fa\u573a": 3252, "\u536b": 3253, "\u2581\u9ad8\u7b49": 3254, "\u2581\u65e0\u6570": 3255, "\u2581\u5bcc": 3256, "\u9635": 3257, "\u2581\u63a8\u52a8": 3258, "\u6746": 3259, "\u2581\u6b4c\u624b": 3260, "\u2581\u5168\u5e02": 3261, "\u2581content": 3262, "\u2581\u6709\u94b1": 3263, "\u4fe9": 3264, "\u2581\u978b": 3265, "\u2581\u6551": 3266, "\u542f": 3267, "\u5370": 3268, "\u2581\u56fe\u4e66\u9986": 3269, "\u2581\u8fd9\u53e5": 3270, "\u2581\u5947\u602a": 3271, "\u2581\u7535\u6c60": 3272, "\u2581\u5ffd": 3273, "\u2581\u4e1b": 3274, "\u2581\u59d0": 3275, "\u75bc": 3276, "\u2581\u843d": 3277, "\u2581\u7834\u574f": 3278, "\u4eba\u53e3": 3279, "\u6885": 3280, "\u2581\u5b87\u5b99": 3281, "\u2581\u4f20\u8bf4": 3282, "\u2581\u4e00\u7247": 3283, "\u2581\u6536\u85cf": 3284, "\u2581\u540e\u671f": 3285, "\u7ec3": 3286, "\u2581\u64ad\u653e": 3287, "\u2581\u5343\u4e07": 3288, "\u2581for": 3289, "\u90a6": 3290, "\u2581\u5f39": 3291, "\u2581\u673a\u5668": 3292, "\u2581\u5ba4\u5185": 3293, "\u2581\u6b65": 3294, "\u2581\u5355\u8eab": 3295, "\u2581\u4e00\u7fa4": 3296, "\u88ad": 3297, "\u2581\u5e72\u51c0": 3298, "\u2581\u6d4b\u91cf": 3299, "\u2581\u75c7": 3300, "\u2581\u6000\u7591": 3301, "\u2581\u6b63\u662f": 3302, "\u2581\u5f7b\u5e95": 3303, "\u2581\u676d\u5dde": 3304, "\u9c81": 3305, "\u2581\u75db": 3306, "\u2581\u79ef\u7d2f": 3307, "\u4f18": 3308, "\u2581\u675c": 3309, "\u2581\u6ce8\u91cd": 3310, "\u6545": 3311, "\u2581\u8c03\u8282": 3312, "\u2581\u6050\u6016": 3313, "\u2581\u9632\u6b62": 3314, "\u73e0": 3315, "\u2581\u63a5\u8fd1": 3316, "\u8c31": 3317, "\u2581\u8bb0\u8005": 3318, "\u2581\u987e\u5ba2": 3319, "\u2581\u94c1\u8def": 3320, "\u2581\u4e9a\u6d32": 3321, "\u8033": 3322, "\u2581\u767b\u8bb0": 3323, "\u2581\u9ed1\u8272": 3324, "\u2581\u56db\u5e74": 3325, "\u52a1": 3326, "\u2581\u6d4f\u89c8": 3327, "\u53c2\u6570": 3328, "\u9970": 3329, "\u2581\u8170": 3330, "10": 3331, "\u8c05": 3332, "\u2581\u8179": 3333, "\u5c31\u662f": 3334, "\u500d": 3335, "\u7f6a": 3336, "12": 3337, "\u58f3": 3338, "\u258102": 3339, "\u2581\u591a\u4eba": 3340, "\u2581----": 3341, "\u2581\u6b66\u5668": 3342, "\u2581\u652f": 3343, "\u2581\u5757": 3344, "\u2581\u6cb3\u5357": 3345, "\u2581\u52a8\u6001": 3346, "\u94a2": 3347, "\u2581\u59dc": 3348, "\u521a": 3349, "\u6d1b": 3350, "\u632f": 3351, "ar": 3352, "J": 3353, "\u258104": 3354, "\u2581\u518d\u4e5f": 3355, "\u2581\u534f\u8bae": 3356, "\u5df1": 3357, "\u2581\u9879": 3358, "\u2581\u4fc4\u7f57\u65af": 3359, "\u2581\u4ec5\u4ec5": 3360, "\u2581\u53d1\u8fbe": 3361, "\u2581\u6b64\u65f6": 3362, "\u2581\u95f9": 3363, "\u663e": 3364, "\u2581\u601d\u8def": 3365, "\u25811996": 3366, "\u2581\u63d0\u524d": 3367, "\u2581\u677f": 3368, "\u7c4d": 3369, "\u2581150": 3370, "\u2581\u6ce1": 3371, "\u2581\u7eaa\u5ff5": 3372, "\u2581\u8d62": 3373, "\u5427": 3374, "\u2581\u76f8\u5904": 3375, "\u2581\u6c5f\u82cf": 3376, "\u2581\u827e": 3377, "\u2581\u6beb\u65e0": 3378, "\u79d1\u5b66": 3379, "\u300e": 3380, "\u2581\u6025": 3381, "\u76d0": 3382, "\u2581\u540e\u6094": 3383, "\u2581\u4f5c\u5bb6": 3384, "\u2581\u79d8\u4e66": 3385, "\u5236\u5ea6": 3386, "\u2581\u9891\u7387": 3387, "\u2581\u98df": 3388, "\u2581\u6076": 3389, "\u2581\u767d\u8272": 3390, "et": 3391, "\u2581400": 3392, "\u9632": 3393, "\u2581\u6e20\u9053": 3394, "\u6750\u6599": 3395, "\u4e16\u7eaa": 3396, "\u2581\u4e0d\u5f97\u4e0d": 3397, "\u6bd5\u4e1a": 3398, "es": 3399, "\u77ed": 3400, "\u2581zhihu": 3401, "\u2581\u9ad8\u4e09": 3402, "\u4e70": 3403, "\u5f8b": 3404, "\u2581\u5c3d\u7ba1": 3405, "\u2581\u89c4\u5f8b": 3406, "\u2581\u673a\u573a": 3407, "\u2581\u5ba1\u8ba1": 3408, "\u2581\u97f3": 3409, "\u5e45": 3410, "\u2581\u7389": 3411, "\u2581\u51e0\u6b21": 3412, "\u2581120": 3413, "\u89c4\u5212": 3414, "\u2581\u6311": 3415, "\u9b42": 3416, "\u2581\u5c5e\u6027": 3417, "\u2581\u7406\u8d22": 3418, "\u2581\u75c5\u4eba": 3419, "\u2581\u610f\u5473": 3420, "\u2581\u4ece\u6b64": 3421, "\u952e": 3422, "\u2581\u653e\u5165": 3423, "\u6f6e": 3424, "\u6e7e": 3425, "\u2581CPU": 3426, "\u300f": 3427, "\u65b9\u6848": 3428, "\u2581\u8bbe\u7acb": 3429, "\u2581\u654f\u611f": 3430, "\u8d85": 3431, "\u2581\u4f9b\u5e94": 3432, "\u2581\u5b97": 3433, "\u2581\u663e\u5f97": 3434, "\u68d2": 3435, "\u4e66\u8bb0": 3436, "\u2581\u7269\u4e1a": 3437, "\u8d5e": 3438, "\u5cad": 3439, "\u94f6\u884c": 3440, "\u2581\u4e1c\u65b9": 3441, "\u2581\u683c\u5f0f": 3442, "\u2581\u7f51\u53cb": 3443, "\u65b9\u6cd5": 3444, "\u2581\u86cb\u767d": 3445, "\u5bb9\u91cf": 3446, "\u2581\u8bf8": 3447, "\u2581\u6c11\u95f4": 3448, "\u2581\u6bcd": 3449, "\u57ce\u5e02": 3450, "\u2581\u952e\u76d8": 3451, "\u7687\u5e1d": 3452, "\u2581\u5854": 3453, "\u2581\u9f13\u52b1": 3454, "\u2581\u8f74\u627f": 3455, "\u2581\u5973\u5b50": 3456, "\u2581\u8363\u83b7": 3457, "\u7b56": 3458, "Q": 3459, "\u9020": 3460, "\u2581\u6d88\u5931": 3461, "\u2581\u8b66\u5bdf": 3462, "\u2581\u5f3a\u8c03": 3463, "\u2581\u80a1\u7968": 3464, "\u63d0": 3465, "E": 3466, "\u2581\u7406\u6027": 3467, "\u2581\u806a\u660e": 3468, "\u2581\u4fdd\u4fee": 3469, "\u706d": 3470, "\u2581\u4e00\u8f88\u5b50": 3471, "\u53d4": 3472, "\u2581\u4e3e": 3473, "\u2581\u4fe1\u7528": 3474, "\u6539": 3475, "\u30fc": 3476, "\u2581\u529d": 3477, "\u2581\u9ad8\u6548": 3478, "\u2581\u666e": 3479, "\u2581\u808c\u8089": 3480, "\u9664": 3481, "\u2581\u5f62\u6001": 3482, "\u9732": 3483, "j": 3484, "\u2581\u677e": 3485, "\u5b9c": 3486, "\u5858": 3487, "\u2581\u4e66\u6cd5": 3488, "\u547c": 3489, "\u2581\u80cc\u540e": 3490, "\u5e55": 3491, "\u2581\u6708\u4efd": 3492, "\u2581\u5341\u4e94": 3493, "\u2581\u901a\u77e5": 3494, "\u2581\u4e00\u5927": 3495, "\u2581\u4ee4": 3496, "\u9274": 3497, "\u4e13\u4e1a": 3498, "\u2581\u955c\u50cf": 3499, "\u8bbf": 3500, "\u6de1": 3501, "\u6d3b\u52a8": 3502, "\u6c41": 3503, "\u2581\u68ee\u6797": 3504, "\u2581\u822a\u7a7a": 3505, "\u2581......": 3506, "\u2581\u4e24\u6b21": 3507, "\u2581\u955c\u5934": 3508, "\u2581\u5c0f\u533a": 3509, "\u2581\u8bca\u65ad": 3510, "\u2581\u62df": 3511, "\u2581\u672c\u5730": 3512, "\u2581\u9694": 3513, "\u6cea": 3514, "\u62db": 3515, "\u6a21": 3516, "\u2581\u8bd1": 3517, "\u4e24": 3518, "\u2581\u6bd2": 3519, "\u2581\u63aa\u65bd": 3520, "\u2581\u62dc": 3521, "\u2581\u9884\u9632": 3522, "\u4ed8": 3523, "\u585e": 3524, "\u2581\u5341\u4e00": 3525, "\u2581\u901a\u4fe1": 3526, "\u2581\u7d2b": 3527, "\u9488": 3528, "\u2581\u751f\u65e5": 3529, "\u2581\u5f71\u89c6": 3530, "en": 3531, "\u2581\u5251": 3532, "\u2581\u5fd8\u8bb0": 3533, "\u5b89\u5168": 3534, "\u2581\u4e0b\u964d": 3535, "\u2581\u7aef": 3536, "\u2581\u52a8\u6f2b": 3537, "\u2581\u8f83\u5927": 3538, "\u2581\u6b66\u6c49": 3539, "\u2581\u516c\u5143": 3540, "\u2581\u529e\u5b66": 3541, "\u2581\u5360\u5730": 3542, "\u2581\u5f8b\u5e08": 3543, "\u2581\u7f3a": 3544, "\u2581\u770b\u6765": 3545, "\u9f7f": 3546, "\u2581\u964c\u751f": 3547, "\u2581\u7070": 3548, "\u2581\u4e3e\u884c": 3549, "\u2581\u8fd0\u8f93": 3550, "\u2581\u5206\u5272": 3551, "\u2581\u660e\u660e": 3552, "\u574f": 3553, "\u2581\u547c\u5438": 3554, "\u2581\u56f0": 3555, "\u2581\u8bbe\u5b9a": 3556, "R": 3557, "\u2581\u6284": 3558, "\u2581\u5b9a\u4ef7": 3559, "\u2581\u4e0d\u7136": 3560, "\u2581\u4ef7\u503c\u89c2": 3561, "\u2581\u9f3b": 3562, "\u2581\u85cf": 3563, "\u2581\u6536\u8d39": 3564, "\u7edd": 3565, "\u2581\u8f7d": 3566, "\u2581\u59d4\u5458": 3567, "\u2581\u897f\u5b89": 3568, "\u2581\u6c49\u65cf": 3569, "\u25811995": 3570, "\u2581\u4e00\u4f53": 3571, "\u2581\u76f8\u4f3c": 3572, "\u2581\u7cbe\u5f69": 3573, "\u2581\u63a2\u7d22": 3574, "\u2581\u732a": 3575, "\u5609": 3576, "\u2581\u7626": 3577, "\u2581\u5143\u7d20": 3578, "\u2581\u5206\u8fa8": 3579, "\u2581\u4f9d\u6cd5": 3580, "\u2581\u6807\u5fd7": 3581, "\u987e": 3582, "\u8bef": 3583, "\u2581\u6ca1\u4eba": 3584, "\u2581\u7a77": 3585, "\u2581\u5f15\u5bfc": 3586, "\u53eb": 3587, "\u5341": 3588, "\u7ec6": 3589, "\u2581\u7167\u987e": 3590, "\u2581\u65e0\u9650": 3591, "\u2581\u6d45": 3592, "\u2581\u4e4c": 3593, "\u2581\u66f9": 3594, "\u2581\u4fdd\u5b58": 3595, "\u654f": 3596, "\u2581\u68c0\u9a8c": 3597, "\u2581\u5faa\u73af": 3598, "\u2581\u6885": 3599, "\u8c8c": 3600, "\u2015": 3601, "\u2581\u90e8\u961f": 3602, "\u2581\u7f16\u7a0b": 3603, "\u2581question": 3604, "\u2581\u793e\u4f1a\u4e3b\u4e49": 3605, "\u2581\u4e16": 3606, "\u2581\u6c5f": 3607, "\u2581\u5e72\u90e8": 3608, "\u6587\u5316": 3609, "\u2581\u9646": 3610, "\u8ba2": 3611, "st": 3612, "\u2581\u7ef4": 3613, "\u4e5d": 3614, "\u2581\u8f96": 3615, "\u25812013": 3616, "it": 3617, "\u2581\u957f\u5f97": 3618, "\u2581\u4ea7": 3619, "\u2581\u65f6\u523b": 3620, "\u7c92": 3621, "\u7434": 3622, "\u2581\u8d64": 3623, "\u2581\u8499": 3624, "\u2581\u603b\u4f53": 3625, "\u2581\u5929\u7136": 3626, "\u2581\u6ce2": 3627, "\u2581\u534a\u5e74": 3628, "\u2581\u8d37\u6b3e": 3629, "\u2581\u8ba4\u53ef": 3630, "\u2581..": 3631, "\u2581\u642d\u914d": 3632, "\u2581\u661f": 3633, "\u2581\u5c11\u5973": 3634, "\u2581\u70e4": 3635, "\u6d4e": 3636, "\u5750": 3637, "\u666e": 3638, "\u2581\u5c0f\u7ec4": 3639, "\u888b": 3640, "\u2581\u897f\u5357": 3641, "\u2581\u751a": 3642, "\u2581\u4f53\u4f1a": 3643, "\u2581\u8f93": 3644, "\u6162": 3645, "\u2581\u5916\u89c2": 3646, "\u822a": 3647, "\u2581\u5e7f\u573a": 3648, "\u2581\u6838": 3649, "\u6863": 3650, "\u9686": 3651, "\u6750": 3652, "\u8c46": 3653, "\u2581\u786c\u76d8": 3654, "\u2581\u6b23\u8d4f": 3655, "\u2581\u5de5\u7a0b\u5e08": 3656, "\u5f52": 3657, "\u64ad": 3658, "\u6c9f": 3659, "\u72af": 3660, "\u88c2": 3661, "\u2581\u72af\u7f6a": 3662, "\u5bbe": 3663, "\u2581\u95f2": 3664, "\u2581\u5212": 3665, "\u59d3": 3666, "\u2581\u4e3b\u4eba": 3667, "\u2581\u517c\u804c": 3668, "\u2581\u96c6\u4f53": 3669, "\u2581\u5fc5": 3670, "16": 3671, "\u2581\u4f11\u606f": 3672, "\u2581\u6307\u6325": 3673, "\u4fe1\u606f": 3674, "\u2581\u80c3": 3675, "\u2581\u5f7c\u6b64": 3676, "\u9aa4": 3677, "\u88e4": 3678, "\u8584": 3679, "\u2581\u57fa\u56e0": 3680, "\u2581\u5f31": 3681, "\u2581\u79bb\u5a5a": 3682, "\u767b": 3683, "\u2581\u8bfe\u9898": 3684, "\u2581\u4e94\u5e74": 3685, "\u7814": 3686, "\u80af": 3687, "\u817f": 3688, "\u2581\u5e9f": 3689, "\u6210\u679c": 3690, "\u2581\u8fd0": 3691, "\u679d": 3692, "\u2581\u793a\u8303": 3693, "\u2581\u8c8c\u4f3c": 3694, "\u2581\u5730\u4e0b": 3695, "\u5c18": 3696, "\u2581\u4e00\u534a": 3697, "\u2581\u597d\u5904": 3698, "\u2581\u4f1f\u5927": 3699, "\u2581\u6444\u50cf": 3700, "\u521b": 3701, "\u6c38": 3702, "\u2581\u7237\u7237": 3703, "\u2581\u5609": 3704, "\u4e30": 3705, "\u2581\u521b\u610f": 3706, "\u2581\u4e00\u81f4": 3707, "\u2581\u65e9\u671f": 3708, "\u2581\u95ee\u95ee": 3709, "\u2581\u751c": 3710, "\u5fc5": 3711, "\u4ea9": 3712, "\u2581\u516c\u52a1\u5458": 3713, "Z": 3714, "\u2581\u516c\u5e73": 3715, "\u7ed5": 3716, "\u2581\u51fa\u53d1": 3717, "\u2581\u5047\u8bbe": 3718, "\u2581\u7f16": 3719, "\u2581\u7ecf\u7406": 3720, "\u2581\u8d38\u6613": 3721, "ia": 3722, "\u65d7": 3723, "\u6362": 3724, "\u2581\u6807": 3725, "\u2581\u798f": 3726, "th": 3727, "\u74f6": 3728, "\u2581\u4e00\u8def": 3729, "\u2581\u964d": 3730, "\u6240\u4ee5": 3731, "\u82b3": 3732, "\u2581\u56fd\u4ea7": 3733, "\u2581\u6254": 3734, "\u2581\u751f\u6c14": 3735, "\u2581\u6e29\u6696": 3736, "\u2581\u6d88": 3737, "\u2581\u56e2\u4f53": 3738, "\u793e\u4f1a": 3739, "\u2581\u8f85\u52a9": 3740, "\u2581\u7535\u529b": 3741, "\u2581\u6d77\u62d4": 3742, "\u79cb": 3743, "\u7089": 3744, "\u2581\u76db": 3745, "\u2581\u63d0\u9192": 3746, "\u2581\u6c14\u8d28": 3747, "\u2581\u897f\u5317": 3748, "\u2581\u590f\u5929": 3749, "\u6b32": 3750, "\u2581\u4eba\u6587": 3751, "\u2581\u60c5\u8282": 3752, "\u2581\u5206\u914d": 3753, "\u2581\u91cd\u590d": 3754, "\u7965": 3755, "\u2581\u8282\u594f": 3756, "\u2581\u53ea\u4f1a": 3757, "\u5ead": 3758, "\u2581\u6e23": 3759, "\u2581\u4e00\u5ea7": 3760, "\u2581\u6eda": 3761, "\u2581\u8111": 3762, "\u2581\u786c\u4ef6": 3763, "\u2581\u6562": 3764, "\u2581\u539f\u6599": 3765, "\u2581\u96be\u5ea6": 3766, "\u2581\u7f62": 3767, "\u5c4b": 3768, "\u2581\u670d\u52a1\u5668": 3769, "\u2581\u4eff": 3770, "\u9759": 3771, "\u2581\u5e76\u975e": 3772, "\u2581\u820d": 3773, "\u2581\u4e66\u7c4d": 3774, "le": 3775, "\u5751": 3776, "\u2581\u8457": 3777, "\u2581\u5200": 3778, "\u2581\u6811": 3779, "\u8f6f\u4ef6": 3780, "\u2581\u7f3a\u70b9": 3781, "\u2581\u642c": 3782, "\u2581\u8d1f": 3783, "\u2581\u7565": 3784, "\u5211": 3785, "\u6807\u51c6": 3786, "\u2581\u5fc3\u7075": 3787, "\u2581\u65e0\u804a": 3788, "\u2581\u7701\u7ea7": 3789, "\u2581\u4e66\u8bb0": 3790, "\u54cd": 3791, "\u2581\u65ad": 3792, "\u603b": 3793, "\u2581\u4e00\u628a": 3794, "\u2581.....": 3795, "\u2581\u70ed\u60c5": 3796, "\u4e0e": 3797, "\u2581\u6709\u7528": 3798, "\u2581\u5b9e\u4f8b": 3799, "\u5b9e\u8bdd": 3800, "\u2581\u6e56": 3801, "\u2581\u6291\u90c1": 3802, "\u97f5": 3803, "\u2581\u51fa\u95e8": 3804, "\u2581\u5413": 3805, "\u950b": 3806, "\u2581\u5317\u65b9": 3807, "\u2581\u4e0a\u5b66": 3808, "\u519c": 3809, "\u2581\u4e91\u5357": 3810, "\u6c27": 3811, "\u2581\u6240\u5c5e": 3812, "\u2581\u5939": 3813, "\u2581\u7d27\u5f20": 3814, "\u2581\u89c2\u5ff5": 3815, "\u6155": 3816, "\u2581\u4e0d\u8ba9": 3817, "\u2581\u80be": 3818, "\u5e78": 3819, "\u2581\u610f\u5916": 3820, "\u624e": 3821, "\u2581\u517b\u6b96": 3822, "\u2581\u817e\u8baf": 3823, "\u575b": 3824, "\u2581\u667a\u5546": 3825, "\u2581\u9b4f": 3826, "\u2581\u73af": 3827, "\u2581\u4e8b\u7269": 3828, "\u2581\u526a": 3829, "\u2581\u98de\u884c": 3830, "\u2581\u6269\u5927": 3831, "\u2581\u6446": 3832, "\u607c": 3833, "\u533b\u9662": 3834, "\u2581\u5acc": 3835, "\u6e7f": 3836, "\u732b": 3837, "\u2581\u9047": 3838, "\u7537": 3839, "\u76d6": 3840, "\u654c": 3841, "\u2581\u795d": 3842, "\u2581\u6307\u6807": 3843, "\u2581\u62db\u8058": 3844, "\u6298": 3845, "\u2581\u518d\u8bf4": 3846, "\u2581\u79cd\u7c7b": 3847, "\u51b7": 3848, "\u4ed6\u4eba": 3849, "\u80cc": 3850, "\u2581\u51e1": 3851, "\u2581\u8f6c\u79fb": 3852, "\u2581\u4fe1\u4efb": 3853, "\u2581\u73b0\u72b6": 3854, "\u2581\u7b2c\u5341": 3855, "\u25811994": 3856, "\u2581\u968f\u65f6": 3857, "\u2581\u5404\u5730": 3858, "\u4ed9": 3859, "\u536b\u751f": 3860, "\u5047": 3861, "\u8482": 3862, "\u2581\u7ef4\u6301": 3863, "\u7ffc": 3864, "\u2581\u660e\u5929": 3865, "\u83f2": 3866, "\u2581\u6269\u5c55": 3867, "\u2581\u7f8e\u5bb9": 3868, "\u2581\u590d\u4e60": 3869, "\u25813000": 3870, "\u2581\u5220": 3871, "\u2581\u519b\u961f": 3872, "\u2581\u4e92\u52a8": 3873, "\u2581\u6210\u5206": 3874, "\u2581\u4fe1\u4ef0": 3875, "\u2581\u6b4c\u8bcd": 3876, "\u673a\u5173": 3877, "\u4e03": 3878, "\u2581\u96be\u8fc7": 3879, "\u2581\u5bb6\u65cf": 3880, "\u2581\u6536\u96c6": 3881, "\u2581\u8fd1\u5e74": 3882, "\u2581\u5c45\u6c11": 3883, "\u2581\u9020\u578b": 3884, "\u7f72": 3885, "id": 3886, "\u2581\u4f9d\u636e": 3887, "\u2581\u70df": 3888, "\u2581\u7ea7\u522b": 3889, "\u805a": 3890, "\u2581\u6cbf": 3891, "\u820d": 3892, "\u2581\u6027\u522b": 3893, "\u5728\u4e8e": 3894, "\u2581\u897f\u73ed\u7259": 3895, "\u2581\u4e2d\u534e\u4eba\u6c11\u5171\u548c\u56fd": 3896, "\u2581800": 3897, "\u2581\u8857\u9053": 3898, "\u2581\u8d70\u5411": 3899, "\u2581\u96c6\u6210": 3900, "\u8dd1": 3901, "\u2581\u5e74\u7eaa": 3902, "\u2581\u6700\u4f4e": 3903, "\u2581iPhone": 3904, "\u2581\u4e2d\u6709": 3905, "\u2581\u6df7\u5408": 3906, "\u2581\u5229\u6da6": 3907, "\u8d23\u4efb": 3908, "\u2581\u4e3b\u4f53": 3909, "\u2581\u7a7a\u8c03": 3910, "\u51a0": 3911, "\u2581\u6e05\u6670": 3912, "\u2581\u5ba3": 3913, "\u2581\u5bc4": 3914, "\u2581\u5355\u5143": 3915, "\u25811993": 3916, "\u2581\u81f4\u529b": 3917, "\u2581\u6682\u65f6": 3918, "\u8f89": 3919, "\u2581\u56e2": 3920, "\u2581\u547d\u8fd0": 3921, "\u2581\u901b": 3922, "\u2581\u523a": 3923, "\u2581\u5357\u65b9": 3924, "\u2581\u5438": 3925, "\u7eaa": 3926, "11": 3927, "\u8154": 3928, "\u2581\u66b4": 3929, "\u2581\u5409": 3930, "\u0304": 3931, "el": 3932, "\u2581\u4fdd\u7559": 3933, "\u60a3": 3934, "\u2581\u9ad8\u7aef": 3935, "\u2581\u70e6": 3936, "\u2581\u540c\u5fd7": 3937, "\u9f20": 3938, "\u2581app": 3939, "\u2581\u5370\u5237": 3940, "\u5348": 3941, "\u2581\u8d85\u5e02": 3942, "\u2581\u4e43": 3943, "\u2581\u9884\u6d4b": 3944, "\u2581\u63d0\u793a": 3945, "\u2581\u8033\u673a": 3946, "\u534f\u4f1a": 3947, "\u2581\u8212\u9002": 3948, "\u2581\u5404\u81ea": 3949, "\u2581\u81ea\u4e3b": 3950, "\u2581is": 3951, "\u2581\u8986\u76d6": 3952, "\u2581\u4e34": 3953, "\u2581\u7ea2\u8272": 3954, "\u258136": 3955, "\u78e8": 3956, "\u2581\u9f20\u6807": 3957, "\u2581\u4e0a\u7f51": 3958, "\u2581\u7f16\u5199": 3959, "T": 3960, "ta": 3961, "\u2581\u5c97\u4f4d": 3962, "\u590f": 3963, "\u2581\u6574\u7406": 3964, "\u83cc": 3965, "\u2581\u4f5b\u6559": 3966, "\u2581\u79d8\u5bc6": 3967, "\u7af9": 3968, "\u2581\u786e\u8ba4": 3969, "\u9891": 3970, "\u2581\u852c\u83dc": 3971, "\u5987": 3972, "is": 3973, "\u2581\u54e5\u54e5": 3974, "\u2581\u542f\u52a8": 3975, "\u9ad8\u5174": 3976, "\u2581w": 3977, "\u2581\u5e7f\u897f": 3978, "\u2581\u62fc": 3979, "\u6301": 3980, "\u6d0b": 3981, "\u2581\u53f8\u673a": 3982, "\u2581\u626f": 3983, "\u2581\u67d0\u79cd": 3984, "\u30fb": 3985, "\u2581\u5927\u7ea6": 3986, "\u2581\u5bf9\u5916": 3987, "\u62a4": 3988, "\u2581\u6076\u5fc3": 3989, "\u8bb2": 3990, "\u2581\u8f66\u8f86": 3991, ".8": 3992, "\u0301": 3993, "\u2581\u5728\u5bb6": 3994, "\u2581\u8868\u60c5": 3995, "`": 3996, "\u2581\u8bbf\u95ee": 3997, "\u9f13": 3998, "\u2581\u6f6e": 3999, "\u2581\u987a\u5229": 4000, "\u2581ps": 4001, "\u8c13": 4002, "\u2581\u56fe\u50cf": 4003, "\u2581\u65e0\u7ebf": 4004, "\u2581\u9020": 4005, "\u2581\u4f9d\u65e7": 4006, "\u2581\u59bb\u5b50": 4007, "\u559c": 4008, "\u2581\u83b7\u53d6": 4009, "\u2581\u80a1\u4efd": 4010, "\u2581\u51fd\u6570": 4011, "\u2581\u9b45\u529b": 4012, "\u2581\u6570\u636e\u5e93": 4013, "\u2581\u5404\u9879": 4014, "\u2581\u8102\u80aa": 4015, "\u2581\u53d1\u51fa": 4016, "\u67dc": 4017, "\u2581\u5dee\u522b": 4018, "\u2581\u6e29\u67d4": 4019, "\u2581\u591a\u6570": 4020, "\u8428": 4021, "\u2581\u6c61\u67d3": 4022, "\u2581\u9996\u6b21": 4023, "\u2581\u5185\u7f6e": 4024, "\u2581\u7bee\u7403": 4025, "\u4e88": 4026, "\u2581\u4e8c\u5341": 4027, "\u5965": 4028, "\u2581\u78b0\u5230": 4029, "\u25812.5": 4030, "\u7f8a": 4031, "\u2581\u8bb0\u8f7d": 4032, "\u8f74": 4033, "\u2581\u60b2": 4034, "\u2581\u6e90": 4035, "\u5bd2": 4036, "\u2581\u72c2": 4037, "\u2581\u9650": 4038, "\u2581\u5c0f\u5fc3": 4039, "\u2581d": 4040, "\u2581\u70ed\u7231": 4041, "\u2581\u9884\u7b97": 4042, "\u2581\u664b": 4043, "\u2581\u661f\u671f": 4044, "\u4eac": 4045, "\u2581\u4ed4\u7ec6": 4046, "\u2581\u4eba\u5de5": 4047, "\u2581\u4eb2\u621a": 4048, "MB": 4049, "\u2581\u4ed9": 4050, "\u2581\u5c55\u5f00": 4051, "\u7d20\u8d28": 4052, "\u592a\u591a": 4053, "\u25811992": 4054, "\u2581\u620f": 4055, "\u2581\u521b": 4056, "\u2581\u5408\u6cd5": 4057, "\u2581\u6d53": 4058, "\u2581\u961f\u4f0d": 4059, "\u2581\u5730\u9707": 4060, "\u788e": 4061, "\u25812.2": 4062, "\u2581\u6982\u7387": 4063, "\u2581\u78b0": 4064, "\u2581\u8521": 4065, "\u2581\u89e3\u653e": 4066, "\u2581\u7687": 4067, "\u2581\u79cb": 4068, "\u2581\u519c": 4069, "\u2581\u53f8\u6cd5": 4070, "\u2581\u8fdb\u53e3": 4071, "\u2581\u4e00\u6d41": 4072, "\u6559\u6388": 4073, "\u2581\u6ca1\u4e8b": 4074, "\u2581\u6ca1\u6cd5": 4075, "\u2581\u5bf9\u624b": 4076, "\u865a": 4077, "\u2581\u9a91": 4078, "\u2581\u4eae": 4079, "\u2581\u67e5\u770b": 4080, "\u2581\u6559\u7ec3": 4081, "\u2581\u8d8b\u52bf": 4082, "\u2581\u4fdd\u5065": 4083, "\u2581\u51b3\u7b56": 4084, "\u2581\u4eba\u58eb": 4085, "\u2581\u6d77\u6d0b": 4086, "\u2581\u4e0d\u5fc5": 4087, "\u2581USB": 4088, "\u2581\u5bc6\u7801": 4089, "\u2581\u7532": 4090, "\u2581\u8ba4\u540c": 4091, "\u2581\u6d6e": 4092, "\u2581\u6b3a": 4093, "\u884c\u4e1a": 4094, "\u2581\u4e2a\u4f53": 4095, "\u2581\u8bc1\u636e": 4096, "\u2581\u6863\u6848": 4097, "\u2581\u6cd5\u89c4": 4098, "\u2581\u558a": 4099, "\u2581\u6388\u4e88": 4100, "\u2581l": 4101, "\u80a0": 4102, "\u2581\u8eba": 4103, "\u2581\u8463\u4e8b": 4104, "\u2581\u4e01": 4105, "\u2581\u53ef\u9760": 4106, "\u2581\u64e6": 4107, "\u2581\u590d\u5408": 4108, "\u2581\u90a3\u65f6": 4109, "\u2581\u8ba4\u77e5": 4110, "\u2581\u4e00\u5bf9": 4111, "\u2581\u5382\u5546": 4112, "\u2581\u63a5\u4e0b": 4113, "\u2581\u8f85\u5bfc": 4114, "\u2581\u5206\u5b50": 4115, "\u2581\u901a\u8baf": 4116, "\u2581\u4f9d\u9760": 4117, "\u2581\u64c5\u957f": 4118, "\u2581\u809d": 4119, "\u2581\u865a\u62df": 4120, "\u9601": 4121, "\u6d32": 4122, "\u2581\u89c4\u683c": 4123, "\u610f\u8bc6": 4124, "\u2581\u65b0\u7586": 4125, "\u9669": 4126, "\u2581\u59b9\u59b9": 4127, "\u2581\u7af9": 4128, "\u2581\u5c0f\u59d0": 4129, "\u2581\u4f18\u60e0": 4130, "\u2581\u9e21\u86cb": 4131, "\u2581\u4e3b\u89d2": 4132, "\u51e4": 4133, "\u2581\u6539\u9020": 4134, "\u4fca": 4135, "\u4eba\u58eb": 4136, "\u2581\u6b32": 4137, "\u2581\u8f6c\u6362": 4138, "\u2581\u4e2d\u5171": 4139, "\u2581\u5220\u9664": 4140, "\u5a5a": 4141, "\u6c11\u5e01": 4142, "\u2581\u4f5c\u51fa": 4143, "\u5065": 4144, "\u2581\u75af\u72c2": 4145, "\u2581\u795e\u79d8": 4146, "\u2581\u786e\u4fdd": 4147, "\u2581\u8d1d": 4148, "\u2581\u96e8": 4149, "\u2581\u5efa\u6210": 4150, "\u25812014": 4151, "\u2581\u7075\u9b42": 4152, "\u2581\u7537\u5b50": 4153, "\u2581\u8d5e": 4154, "\u2581\u7ed3\u8bba": 4155, "\u2581\u89c6\u89c9": 4156, "\u2581\u5bfa": 4157, "\u6551": 4158, "\u2581\u51fb": 4159, "\u2581\u80dc\u5229": 4160, "\u6270": 4161, "\u2581\u9002\u5f53": 4162, "\u6881": 4163, "\u2581\u6d41\u52a8": 4164, "\u5821": 4165, "\u2581\u635f\u5931": 4166, "\u2581\u67e5\u8be2": 4167, "\u2581\u4eba\u6027": 4168, "\u2581\u751f\u7406": 4169, "\u2581\u6d77\u5916": 4170, "\u2581\u5ac1": 4171, "\u2581\u4e00\u7ea7": 4172, "\u2581\u540c\u6027\u604b": 4173, "\u51c9": 4174, "\u2581\u4e59": 4175, "\u2581\u5373\u5c06": 4176, "\u2581\u4e00\u9879": 4177, "\u2581o": 4178, "\u2581\u4e0a\u4e0b": 4179, "\u2581\u6e2f": 4180, "\u2581\u7cbe\u529b": 4181, "\u2581\u8303": 4182, "\u2581\u5f00\u8f66": 4183, "\u2581\u5c1a": 4184, "\u2581\u5916\u5730": 4185, "\u2581\u5317\u4eac\u5e02": 4186, "\u2581\u5956\u52b1": 4187, "14": 4188, "\u2581\u80a9": 4189, "\u2581\u7075": 4190, "\u2581\u4e00\u9897": 4191, "\u2581\u505c\u6b62": 4192, "\u2581\u679c": 4193, "\u2581\u5f53\u524d": 4194, "\u4ec5\u4ec5": 4195, "\u6bbf": 4196, "\u2581\u503e\u5411": 4197, "\u83b1": 4198, "\u2581\u8d27\u5e01": 4199, "\u5c06\u6765": 4200, "\u2581\u6545\u969c": 4201, ".6": 4202, "\u2581\u7ef4\u751f\u7d20": 4203, "\u64cd": 4204, "\u4f60": 4205, "\u2581\u9ed1\u6697": 4206, "\u2581\u9002\u91cf": 4207, "\u2581\u5e73\u9762": 4208, "\u8c22": 4209, "\u2581\u4e00\u7bc7": 4210, "\u5634": 4211, "\u2581\u5de5\u5382": 4212, "\u2581\u5bf9\u9762": 4213, "\u258175": 4214, "an": 4215, "\u7a3f": 4216, "\u2581\u6df1\u5ea6": 4217, "\u2581\u6709\u673a": 4218, "\u83b7": 4219, "\u2581\u7b49\u5f85": 4220, "\u2581\u9632\u6cbb": 4221, "\u5373": 4222, "\u77ff": 4223, "\u2581\u53d1\u660e": 4224, "\u2581\u5c42\u6b21": 4225, "\u2581\u8457\u4f5c": 4226, "u": 4227, "\u2581\u9a7b": 4228, "\u5de7": 4229, "\u2581600": 4230, "\u2581\u6b27": 4231, "\u2581\u65e0\u5948": 4232, "\u2581\u5947\u8469": 4233, "\u2581\u987b": 4234, "\u5237": 4235, "\u2581\u5ba1\u6838": 4236, "\u2581\u671b": 4237, "\u2581\u8bc1\u5238": 4238, "\u2581\u540c\u6b65": 4239, "\u2581\u4e00\u6279": 4240, "\u2581\u5f02\u5e38": 4241, "\u2581\u592a\u591a": 4242, "\u2581\u9ed8\u9ed8": 4243, "\u2581\u5f15\u8fdb": 4244, "\u2581\u5730\u9762": 4245, "\u7f8e\u5143": 4246, "\u2581\u4e0a\u8ff0": 4247, "\u4ead": 4248, "\u2581\u7f8e\u5973": 4249, "\u2581\u5899": 4250, "\u5c16": 4251, "\u2581\u81ea\u5b66": 4252, "\u2581\u4e0d\u4e45": 4253, "\u85aa": 4254, "\u2581\u53cd\u590d": 4255, "\u2581\u514d\u75ab": 4256, "\u9501": 4257, "\u2581\u63a5\u7740": 4258, "\u2581\u4e3b\u6d41": 4259, "\u6838": 4260, "\u81c2": 4261, "\u5c01": 4262, "\u2581\u59d3\u540d": 4263, "\u2581\u5927\u529b": 4264, "\u96c4": 4265, "\u2581\u5b66\u8005": 4266, "\u2581\u6cbb": 4267, "\u2581\u8bd5\u8bd5": 4268, "\u2581\u81ea\u5351": 4269, "\u2581\u4fbf\u5229": 4270, "\u2581\u5165\u95e8": 4271, "\u7ae5": 4272, "\u793a": 4273, "\u2581\u6784": 4274, "\u2581\u9ea6": 4275, "\u2581\u82cf\u8054": 4276, "\u2581\u8f66\u7ad9": 4277, "\u2581\u821e\u53f0": 4278, "\u6263": 4279, "\u2581In": 4280, "\u2581\u7f8e\u98df": 4281, "\u2581\u628a\u63e1": 4282, "\u2581\u89c1\u9762": 4283, "48": 4284, "\u2581\u5e7f\u4e1c\u7701": 4285, "\u2581\u718a": 4286, "\u2581\u75c5\u6bd2": 4287, "\u2581\u603b\u7edf": 4288, "\u2581\u9b54\u6cd5": 4289, "\u2581cm": 4290, "\u2581\u6c88": 4291, "\u2581\u4e0a\u5347": 4292, "\u2581\u539f\u672c": 4293, "\u2581\u4f18\u8d8a": 4294, "\u5565": 4295, "\u2581\u6743\u529b": 4296, "\u5b66\u4e60": 4297, "\u2581\u4f69": 4298, "\u6587\u732e": 4299, "\u6d4b": 4300, "\u2581\u97f3\u9891": 4301, "\u2581\u6cb3\u5317": 4302, "\u2581\u4e0d\u600e\u4e48": 4303, "\u5c04": 4304, "\u2581\u6492": 4305, "\u2581\u54ac": 4306, "\u2581\u652f\u6491": 4307, "\u2581\u7f16\u5236": 4308, "\u7cb9": 4309, "\u8da3": 4310, "\u258138": 4311, "\u2581\u4e66\u753b": 4312, "\u7eb9": 4313, "\u2581\u67f3": 4314, "\u2581\u5171\u6709": 4315, "\u67f1": 4316, "\u2581\u548c\u5e73": 4317, "\u2581\u7f51\u9875": 4318, "\u2581\u865a": 4319, "\u2581\u7535\u5b50\u5546\u52a1": 4320, "\u2581\u5582": 4321, "\u2581\u53d1\u52a8\u673a": 4322, "\u7a97": 4323, "\u25811990": 4324, "\u2581\u62a4\u7406": 4325, "\u2581\u6c34\u679c": 4326, "\u2581\u5fd9": 4327, "\u2581\u5c55": 4328, "\u2581\u897f\u90e8": 4329, "\u2581\u82cf\u5dde": 4330, "\u2581\u6388\u6743": 4331, "\u2581\u6574\u5408": 4332, "\u2581\u6253\u51fb": 4333, "\u2581\u671d\u9c9c": 4334, "\u4e00\u4e0b": 4335, "\u7e41": 4336, "\u534f": 4337, "\u2581\u8239": 4338, "\u52b2": 4339, "\u2581\u5954": 4340, "\u2581\u987a\u4fbf": 4341, "\u2581\u547d\u540d": 4342, "\u2581\u7cd6": 4343, "\u2581\u6ca1\u9519": 4344, "\u2581\u5446": 4345, "\u52c7": 4346, "\u635f": 4347, "\u2581\u968f\u610f": 4348, "\u7761": 4349, "\u54ed": 4350, "\u2581\u9910": 4351, "\u2581\u94a2": 4352, "\u2581\u5bdd": 4353, "\u2581\u5c3f": 4354, "\u2581\u6ca1\u7528": 4355, "\u2581\u5bd2": 4356, "\u82cf": 4357, "\u7535\u89c6\u53f0": 4358, "\u51b2": 4359, "\u25811.1": 4360, "\u2581\u5c31\u884c": 4361, "\u2581\u5996": 4362, "\u653b": 4363, "\u2581\u6b67\u89c6": 4364, "\u2581\u8fd9\u65f6": 4365, "\u90e8\u5206": 4366, "\u2581\u627e\u4e2a": 4367, "\u2581\u7206\u53d1": 4368, "\u2581\u6781\u5927": 4369, "\u2581\u514d": 4370, "\u2581\u5230\u8fbe": 4371, "\u8fd0\u52a8": 4372, "\u2581\u5927\u8111": 4373, "\u2581\u79fb\u6c11": 4374, "\u2581\u6536\u5f55": 4375, "\u2581\u6162": 4376, "\u2581\u7a0e": 4377, "\u2581\u9664\u975e": 4378, "\u2581\u6821\u957f": 4379, "\u2581\u6743\u5a01": 4380, "\u2581de": 4381, "\u2581\u8d22\u5bcc": 4382, "\u2581\u88c5\u7f6e": 4383, "\u8f7b": 4384, "\u2581\u81ea\u6740": 4385, "\u2581\u821e\u8e48": 4386, "\u2581\u793e\u56e2": 4387, "\u2581\u624b\u52a8": 4388, "\u2581\u8d85\u8d8a": 4389, "\u2581\u6750\u8d28": 4390, "ad": 4391, "\u4fd7": 4392, "\u2581\u7b14\u8bb0\u672c": 4393, "\u2581\u62b5": 4394, "\u2581\u6307\u5357": 4395, "\u2581\u8def\u7ebf": 4396, "\u7eb2": 4397, "\u2581\u75bc": 4398, "\u80f6": 4399, "\u2581\u6a21\u5757": 4400, "\u2581\u77f3\u6cb9": 4401, "\u2581\u5b89\u5fbd": 4402, "\u5ef7": 4403, "\u6da6": 4404, "\u2581\u83ab\u540d": 4405, "\u2581me": 4406, "\u4e0d\u4e0b": 4407, "\u2581\u4e13\u5229": 4408, "\u2581\u73cd": 4409, "\u2581\u7206\u70b8": 4410, "\u2581\u529e\u4e8b": 4411, "\u2581\u6536\u83b7": 4412, "\u2581\u5730\u4e0a": 4413, "\u2581\u6267": 4414, "\u2581\u795e\u5947": 4415, "\u2581\u7530": 4416, "\u2581\u4e0d\u505c": 4417, "\u2581\u6839": 4418, "\u2581\u4fee\u590d": 4419, "\u2581---": 4420, "\u2581\u5bf9\u8bdd": 4421, "\u2581\u78e8": 4422, "\u2581\u51af": 4423, "\u2581\u7389\u7c73": 4424, "\u8102": 4425, "\u2581\u4e00\u4e24": 4426, "\u2581\u4e00\u9762": 4427, "\u25811988": 4428, "\u2581\u8eab\u6750": 4429, "\u4e0d\u597d": 4430, "\u6cc4": 4431, "\u2581\u7edf\u6cbb": 4432, "\u2581\u91c7\u8d2d": 4433, "\u5229\u4e8e": 4434, "\u2581\u9662\u6821": 4435, "\u81ea\u5df1": 4436, "\u2581\u754c\u9762": 4437, "\u2581\u5c31\u8bfb": 4438, "\u2581\u6279\u8bc4": 4439, "\u2581\u5976": 4440, "\u70c8": 4441, "\u2581\u6050\u60e7": 4442, "\u8d44\u6599": 4443, "\u2581\u4e13\u7528": 4444, "\u2581\u8bc1\u4e66": 4445, "\u2581\u5f02\u5730": 4446, "\u2581\u7ee7\u627f": 4447, "\u540c\u5b66": 4448, "\u2581\u9274\u5b9a": 4449, "\u2581\u5b9e\u4f53": 4450, "\u8d23": 4451, "\u2581\u5eb7": 4452, "\u2581\u878d": 4453, "\u5b8b": 4454, "\u2581\u4ea4\u5f80": 4455, "\u2581\u9010\u6b65": 4456, "\u2581\u6124": 4457, "\u2581\u51c6": 4458, "\u2581\u6b27\u7f8e": 4459, "\u2581\u5b81": 4460, "\u2581\u5883\u5185": 4461, "\u2581\u76f4\u64ad": 4462, "\u62cd": 4463, "\u2581\u4e61\u6751": 4464, "\u2581\u516c\u5e03": 4465, "\u7a0b\u5e8f": 4466, "\u8bba\u6587": 4467, "\u2581\u8fdd\u6cd5": 4468, "\u59e8": 4469, "\u258133": 4470, "\u25812.1": 4471, "\u2581\u4e00\u70b9\u70b9": 4472, "\u6a21\u5f0f": 4473, "\u2581\u52a0\u6cb9": 4474, "\u2581\u7a7f\u7740": 4475, "\u2581\u524d\u540e": 4476, "\u7f6e": 4477, "\u4e0d\u61c2": 4478, "\u2581\u5bab": 4479, "\u2581\u65e5\u8bed": 4480, "\u5be8": 4481, "\u2581\u516c\u4e3b": 4482, "\u4ed3": 4483, "\u2581\u534f\u52a9": 4484, "\u2581\u8881": 4485, "\u5ba1": 4486, "\u5179": 4487, "\u2581\u5bf9\u5e94": 4488, "\u2581\u4e1c\u5357": 4489, "\u2581\u8a00\u8bba": 4490, "\u6d01": 4491, "\u964d": 4492, "\u2581\u4e00\u5806": 4493, "\u2581\u534a\u4e2a": 4494, "\u2581\u9886\u5148": 4495, "\u5c3a": 4496, "\u6218\u4e89": 4497, "\u6d2a": 4498, "\u2581\u65b0\u9c9c": 4499, "\u2581\u683c": 4500, "\u2581\u6e05\u6d01": 4501, "\u2581\u5bc6": 4502, "Y": 4503, "\u2581\u5408\u5e76": 4504, "\u2581\u722c": 4505, "\u2581\u8111\u5b50": 4506, "\u2581\u8bda\u4fe1": 4507, "\u627f": 4508, "\u2581\u7f6a": 4509, "\u2581\u7ec8": 4510, "\u2581\u535a\u7269\u9986": 4511, "\u8d22": 4512, "\u2581\u65d7": 4513, "\u2581\u5c55\u73b0": 4514, "\u517d": 4515, "\u5e2e": 4516, "\u25811.3": 4517, "\u2581\u6e56\u5317": 4518, "\u4f10": 4519, "\u5f00\u53d1": 4520, "\u2581\u987e\u95ee": 4521, "\u6c57": 4522, "\u2581\u9662\u957f": 4523, "\u2581\u7269\u54c1": 4524, "\u2581\u7535\u8def": 4525, "\u2581\u585e": 4526, "\u2581\u638c": 4527, "\u739b": 4528, "\u2581\u613f": 4529, "\u8ff7\u832b": 4530, "\u2581\u5f3a\u5316": 4531, "\u2581\u52a9": 4532, "\u6d25": 4533, "\u2581\u6539\u8fdb": 4534, "\u5740": 4535, "\u4f0a": 4536, "\u2581\u4e30": 4537, "\u2581\u53ef\u89c1": 4538, "\u9038": 4539, "\u989c": 4540, "\u2581\u52a0\u62ff\u5927": 4541, "\u2581\u758f": 4542, "\u723d": 4543, "\u2581\u798f\u5efa": 4544, "\u2581\u82f1\u6587\u540d": 4545, "\u2581\u603b\u4f1a": 4546, "\u2581\u5408\u6210": 4547, "\u2581\u5206\u6570": 4548, "\u3044": 4549, "\u2581\u539f\u59cb": 4550, "\u2581\u5546\u5bb6": 4551, "\u610f\u4e49": 4552, "\u2581\u676f": 4553, "\u2581\u62c6": 4554, "\u2581\u6454": 4555, "\u258137": 4556, "\u9e23": 4557, "kg": 4558, "17": 4559, "\u2581\u4e25": 4560, "\u5723": 4561, "\u2581IT": 4562, "\u2581\u9e1f": 4563, "\u2581\u9a7e\u9a76": 4564, "\u96f6": 4565, "\u8230": 4566, "\u76d2": 4567, "\u2581\u5973\u795e": 4568, "\u2581\u6846\u67b6": 4569, "\u2581Re": 4570, "\u2581\u4e00\u7ebf": 4571, "\u2581\u5927\u4e8c": 4572, "\u5904\u7406": 4573, "\u2581\u8212": 4574, "ion": 4575, "\u8000": 4576, "\u8499": 4577, "\u534a\u5e74": 4578, "\u2581\u8bb2\u8ff0": 4579, "\u2581\u94a2\u7434": 4580, "\u70c2": 4581, "\u68c0": 4582, "\u2581\u539f\u521b": 4583, "\u9634": 4584, "\u2581\u8d62\u5f97": 4585, "\u2581\u5362": 4586, "\u2581\u516c\u76ca": 4587, "\u2581\u5929\u6c14": 4588, "\u2581\u503c": 4589, "\u2581\u6478": 4590, "\u25811991": 4591, "ation": 4592, "\u5e0c": 4593, "\u2581\u778e": 4594, "\u4e58": 4595, "\u2581\u4e00\u5468": 4596, "\u2581\u4e00\u652f": 4597, "\u25815000": 4598, "\u2581\u5316\u5de5": 4599, "\u62f3": 4600, "\u2581margin": 4601, "\u2581\u5976\u5976": 4602, "\u6765\u8bb2": 4603, "\u2581\u4e09\u56fd": 4604, "\u2581\u5206\u79bb": 4605, "\u2581\u9003": 4606, "\u6280": 4607, "\u9ebb": 4608, "\u2581\u6b63\u597d": 4609, "\u2581\u5bfb": 4610, "\u2581\u611f\u5174\u8da3": 4611, "\u2581\u5341\u516b": 4612, "\u2581\u56fd\u52a1\u9662": 4613, "\u2581\u8f9b\u82e6": 4614, "\u2581\u8c08\u604b": 4615, "\u2581\u7c7b\u522b": 4616, "\u80bf": 4617, "\u2581\u5c71\u4e1c\u7701": 4618, "\u2581\u9057": 4619, "\u2581\u900f\u660e": 4620, "\u258164": 4621, "\u2581\u80ba": 4622, "\u2581\u8fc7\u4e8e": 4623, "\u2581\u5047\u5982": 4624, "13": 4625, "\u2581\u4ea4\u6362": 4626, "\u2581\u5851\u6599": 4627, "\u2581\u8d3e": 4628, "\u258155": 4629, "\u2581\u4eba\u4eba": 4630, "\u2581\u7cae\u98df": 4631, "\u6c1b": 4632, "\u53d1\u5c55": 4633, "\u2581\u6e38\u6cf3": 4634, "\u2581\u5f69": 4635, "\u2581\u822c": 4636, "\u2581\u50cf\u7d20": 4637, "\u2581\u6b32\u671b": 4638, "\u51b0": 4639, "\u5761": 4640, "\u7f3a": 4641, "\u684c": 4642, "\u2581\u724c\u5b50": 4643, "\u2581\u8c46\u74e3": 4644, "\u2581\u81f4": 4645, "\u2581\u53d6\u6d88": 4646, "\u2581\u4f24": 4647, "\u8d1d": 4648, "\u5927\u6218": 4649, "\u2581\u57fa\u5c42": 4650, "\u2581\u5e38\u52a1": 4651, "\u2581\u63a2\u8ba8": 4652, "\u6167": 4653, "\u2581\u76d1\u63a7": 4654, "\u2581\u66b4\u529b": 4655, "\u2581\u8033": 4656, "\u2581\u7b97\u6cd5": 4657, "24": 4658, "\u9600": 4659, "\u2581\u5b88": 4660, "\u2581\u62cd\u7167": 4661, "\u76ca": 4662, "\u2581\u9970": 4663, "\u2581\u4e13\u79d1": 4664, "\u2581\u69fd": 4665, "\u2581\u7537\u5b69": 4666, "\u2581\u653e\u5fc3": 4667, "\u2581\u7ed8\u753b": 4668, "\u7b52": 4669, "\u2581\u91c7": 4670, "\u2581\u593a": 4671, "\u2581\u4e2d\u836f": 4672, "\u67c4": 4673, "\u80b2": 4674, "\u2581\u8fd9\u70b9": 4675, "\u2581\u731c": 4676, "\u2581\u4e2d\u5348": 4677, "\u2581\u5c71\u897f": 4678, "\u2581\u5b9a\u671f": 4679, "\u2581\u7838": 4680, "\u2581\u4e00\u6240": 4681, "\u2581\u98df\u7528": 4682, "\u2581\u836f\u54c1": 4683, "\u6d6a": 4684, "\u5c97": 4685, "\u2581\u4f9d\u8d56": 4686, "\u2581\u5ba1\u7f8e": 4687, "\u2581\u89e6": 4688, "\u4e3a\u51c6": 4689, "\u2581\u62a4\u80a4": 4690, "\u2581\u52a0\u901f": 4691, "\u2581\u5448\u73b0": 4692, "\u2581\u6d2a": 4693, "\u2581\u4eba\u4f1a": 4694, "\u2581\u82b1\u94b1": 4695, "\u2581\u5076\u50cf": 4696, "un": 4697, "\u9b54": 4698, "\u2581\u5e94\u5bf9": 4699, "\u5de5\u4e1a": 4700, "\u2581\u5341\u516d": 4701, "\u2581\u4e09\u661f": 4702, "\u2581\u9042": 4703, "\u2581\u9c81": 4704, "\u2581\u8840\u6db2": 4705, "\u5bff": 4706, "\u4e11": 4707, "\u2581\u65f6\u5149": 4708, "\u2581\u5e26\u6709": 4709, "\u7fbd": 4710, "\u7ed3\u5408": 4711, "\u2581\u9a71\u52a8": 4712, "\u83b2": 4713, "\u2581\u6d1e": 4714, "\u2581\u5341\u4e09": 4715, "\u2581\u878d\u5408": 4716, "\u2581\u65e0\u5173": 4717, "\u2581\u7cbe\u54c1": 4718, "\u2581\u7b2c\u4e8c\u6b21": 4719, "\u2581\u56db\u5927": 4720, "\u2581\u586b": 4721, "\u2581\u5bb6\u4e61": 4722, "\u2581\u5371\u5bb3": 4723, "\u25811984": 4724, "\u732a": 4725, "\u2581\u6742": 4726, "\u6761\u4ef6": 4727, "\u2581\u70b8": 4728, "\u2581\u81ea\u884c": 4729, "\u2581\u5bb6\u5177": 4730, "ro": 4731, "\u2581\u7ebf\u8def": 4732, "\u2581\u56fd\u6c11": 4733, "\u2581\u8001\u5e74": 4734, "\u5404": 4735, "\u2581\u4e0a\u5e1d": 4736, "\u2581\u6c11\u56fd": 4737, "\u971c": 4738, "\u2581\u7f8a": 4739, "\u00a5": 4740, "\u8fc1": 4741, "\u2581\u91ce": 4742, "\u2581\u629b": 4743, "\u2581\u6848\u4ef6": 4744, "\u2581\u540a": 4745, "\u65f6\u4ee3": 4746, "\u2581\u7279\u5b9a": 4747, "\u70e6": 4748, "\u2581\u7981\u6b62": 4749, "\u8302": 4750, "\u258134": 4751, "\u30f3": 4752, "\u2581\u4e49\u52a1": 4753, "\u2581\u8bed\u6587": 4754, "\u2581\u864e": 4755, "\u2581\u6050": 4756, "\u2581\u5987\u5973": 4757, "\u2581\u5ba3\u5e03": 4758, "\u2581\u4e24\u8005": 4759, "il": 4760, "\u2581\u4f4f\u5b85": 4761, "man": 4762, "64": 4763, "\u258195": 4764, "\u2581\u8fdb\u653b": 4765, "\u56de\u4e8b": 4766, "\u2581\u623f\u5c4b": 4767, "\u258148": 4768, "\u2581\u4e89": 4769, "\u4ef7\u6bd4": 4770, "\u6d66": 4771, "\u2581\u4e92": 4772, "\u2581\u8bc6\u522b": 4773, "\u2581\u4f17": 4774, "\u4f34": 4775, "\u2581\u5747\u5300": 4776, "\u2581\u59cb": 4777, "\u2581\u9762\u5411": 4778, "\u6591": 4779, "\u2581\u4ece\u4e1a": 4780, "\u53cc": 4781, "\u2581\u65bc": 4782, "\u75d8": 4783, "\u2581\u5c9b": 4784, "\u5206\u5b50": 4785, "\u2581\u9752\u5c9b": 4786, "\u2581\u52a0\u76df": 4787, "\u2581\u6691\u5047": 4788, "\u2581\u51b2\u7a81": 4789, "\u2581\u515a\u59d4": 4790, "\u2581\u9ad8\u5c42": 4791, "\u5706": 4792, "\u6d82": 4793, "\u6295": 4794, "\u2581\u8d22\u4ea7": 4795, "\u56fd\u5bb6": 4796, "\u2581\u8f6c\u53d8": 4797, "\u2581\u5de7": 4798, "\u2581\u5408\u683c": 4799, "\u2581\u8d74": 4800, "\u2581\u5168\u8eab": 4801, "\u2581\u4e54": 4802, "\u91ca": 4803, "\u2581\u8868\u660e": 4804, "\u2581\u7a0e\u6536": 4805, "\u2581\u666e\u53ca": 4806, "\u5f62\u7801": 4807, "\u8bed\u8a00": 4808, "\u2581\u666e\u901a\u4eba": 4809, "\u2581\u4f20\u5947": 4810, "\u2581\u59d4\u6258": 4811, "\u2581\u76d1\u6d4b": 4812, "\u2581\u5355\u72ec": 4813, "\u6846": 4814, "\u514d": 4815, "\u2581\u6c49\u8bed": 4816, "\u2581\u968f\u673a": 4817, "\u2581\u6c5f\u897f": 4818, "\u2581\u90e1": 4819, "\u2581\u5c06\u519b": 4820, "\u2581\u7b7e": 4821, "\u2581\u6d88\u9664": 4822, "\u56ca": 4823, "\u2581\u5468\u672b": 4824, "\u2581\u77ed\u4fe1": 4825, "\u2581\u9875\u9762": 4826, "am": 4827, "\u2581\u533f\u540d": 4828, "\u52b3": 4829, "\u5065\u5eb7": 4830, "\u773c\u91cc": 4831, "\u2581\u6807\u7b7e": 4832, "\u2581\u805a": 4833, "\u51e1": 4834, "\u6c11\u65cf": 4835, "\u2581\u730e": 4836, "\u2581\u65e0\u4eba": 4837, "21": 4838, "\u7814\u7a76": 4839, "\u2581\u6b8b": 4840, "\u5f15": 4841, "\u2581\u8ba4\u5b9a": 4842, "\u2581\u53e4\u5178": 4843, "\u2581\u5f6d": 4844, "\u2581\u8138\u4e0a": 4845, "\u8001\u5e08": 4846, "\u2581\u8f6c\u5316": 4847, "\u2581360": 4848, "\u8f6f": 4849, "\u2581\u6751\u59d4": 4850, "\u66b4": 4851, "\u2581\u5373\u4fbf": 4852, "500": 4853, "27": 4854, "\u25810.5": 4855, "\u62dc": 4856, "\u2581\u9910\u996e": 4857, "\u2581\u6740\u4eba": 4858, "\u4ef2": 4859, "\u2581\u9aa8": 4860, "\u5de5\u4f5c\u8005": 4861, "\u54f2": 4862, "\u4eca": 4863, "\u2581\u76d1\u7ba1": 4864, "\u2581\u627f\u53d7": 4865, "\u2581\u5b89\u6170": 4866, "\u2581\u56de\u5934": 4867, "\u2581\u8fb9\u7f18": 4868, "\u2581\u80a1": 4869, "\u25811989": 4870, "\u2581\u7cbe\u82f1": 4871, "\u2581\u6f5c": 4872, "\u2581\u5b54": 4873, "\u2581\u70c2": 4874, "\u2581\u7a46\u65af\u6797": 4875, "32": 4876, "\u2581\u6c5f\u82cf\u7701": 4877, "\u2581\u7518": 4878, "\u2581\u96c4": 4879, "\u2581\u4e0a\u6d77\u5e02": 4880, "\u2581\u94fa": 4881, "\u2581\u7b2c\u5341\u4e00": 4882, "\u8bda": 4883, "ang": 4884, "\u2581\u5c24": 4885, "\u258139": 4886, "\u2581\u5395\u6240": 4887, "\u2581\u5b66\u5458": 4888, "\u2581be": 4889, "\u900f": 4890, "\u2581\u80fd\u6e90": 4891, "\u25812.3": 4892, "\u2581\u4e00\u9996": 4893, "\u2581\u907f": 4894, "ic": 4895, "\u2581\u53d1\u5c04": 4896, "\u6076": 4897, "\u25811985": 4898, "\u2581\u6d82": 4899, "\u2581\u5708\u5b50": 4900, "\u2581\u9655\u897f": 4901, "\u2581\u8bed\u97f3": 4902, "\u5747": 4903, "\u2581\u82b1\u56ed": 4904, "\u6212": 4905, "\u2581\u83b7\u5956": 4906, "\u2581\u5929\u8d4b": 4907, "\u2581\u697c\u4e0a": 4908, "\u2581\u949f": 4909, "\u25813.2": 4910, "\u8f9e": 4911, "\u2581\u6263": 4912, "\u2581\u515a\u5458": 4913, "\u2581\u5e03\u5c40": 4914, "\u2581\u9057\u61be": 4915, "\u653f\u7b56": 4916, "\u2581\u8d4b": 4917, "\u5976": 4918, "\u2581\u594b\u6597": 4919, "\u2581\u5927\u4e09": 4920, "\u2581\u79c0": 4921, "\u8003\u8bd5": 4922, "\u258199": 4923, "\u2581\u7f13": 4924, "\u2581\u5f15\u53d1": 4925, "\u2581\u8425\u4e1a": 4926, "\u6240\u8c13": 4927, "\u707e": 4928, "\u2581\u8003\u6838": 4929, "\u2581\u547d\u4ee4": 4930, "\u2581\u900f": 4931, "\u4e0d\u540c": 4932, "\u4ee3\u8868": 4933, "\u2581\u672b": 4934, "\u695a": 4935, "\u2581\u4fe9": 4936, "\u79d8": 4937, "\u59d4\u5458": 4938, "\u2581\u6d88\u5316": 4939, "\u2581\u6d88\u8017": 4940, "\u2581\u5e8a": 4941, "\u25811.4": 4942, "\u2581\u79d1\u5b66\u6280\u672f": 4943, "\u2581\u590d\u5236": 4944, "\u2581\u96c5": 4945, "\u7406\u4e8b": 4946, "\u2581\u6e10": 4947, "\u2581\u666f\u89c2": 4948, "\u22ef": 4949, "\u8b66": 4950, "\u656c": 4951, "\u2581\u7075\u6d3b": 4952, "\u2581\u65b0\u578b": 4953, "\u2581\u5ba0\u7269": 4954, "\u2581\u6253\u5370": 4955, "\u4e0d\u5b9a": 4956, "\u2581\u521b\u529e": 4957, "\u2581\u714e": 4958, "\u2581\u901a\u7528": 4959, "\u58ee": 4960, "\u2581\u6cf0": 4961, "\u2581\u5185\u6db5": 4962, "\u90bb": 4963, "\u8d34": 4964, "\u2581\u79df": 4965, "\u5c1a": 4966, "\u2581\u5e8a\u4e0a": 4967, "\u5eca": 4968, "\u2581\u65c5": 4969, "\u2581\u8d2f\u5f7b": 4970, "\u2581\u56fe\u5f62": 4971, "\u2581\u7981": 4972, "\u2581\u603b\u9762": 4973, "\u544a": 4974, "\u2581\u5730\u8d28": 4975, "\u25bd": 4976, "\u2581\u72af": 4977, "\u2581\u5f02\u6027": 4978, "\u8870": 4979, "\u2581\u6f14\u6280": 4980, "\u2581\u5f81": 4981, "\u8c0b": 4982, "\u971e": 4983, "\u2581\u5e73\u5e38": 4984, "\u2581\u51fa\u4e8e": 4985, "\u8981\u8bf4": 4986, "\u2581\u5e7b\u60f3": 4987, "\u2581\u5ba2\u670d": 4988, "\u2581\u4f5c\u6218": 4989, "\u97f3\u4e50": 4990, "\u2581\u524d\u671f": 4991, "\u2581\u6597": 4992, "\u2581\u9759": 4993, "\u2581\u6700\u591a": 4994, "\u8389": 4995, "\u8328": 4996, "\u2581\u6865": 4997, "\u2581\u4e8b\u6545": 4998, "\u2581\u7535\u538b": 4999, "\u25811987": 5000, "\u2581\u51fa\u8eab": 5001, "\u2581\u5de5\u4eba": 5002, "\u6587\u5b66": 5003, "\u2581\u5341\u51e0": 5004, "\u2581\u786e": 5005, "\u2581\u6cd5\u5b66": 5006, "\u2581\u4e8c\u7ea7": 5007, "\u2581\u540c\u5e74": 5008, "\u2581\u6b63\u9762": 5009, "\u7687": 5010, "\u8d44\u4ea7": 5011, "ine": 5012, "\u03c9": 5013, "\u2581\u52fe": 5014, "\u2581\u8f83\u4e3a": 5015, "\u2581\u808c\u80a4": 5016, ".9": 5017, "\u2581mm": 5018, "\u2581\u5916\u5f62": 5019, "\u2581\u4eea\u5668": 5020, "\u2581\u52a1\u5de5": 5021, "\u2581\u8bd7\u4eba": 5022, "\u53cd": 5023, "\u2581\u51e0\u5341": 5024, "\u2581\u79cd\u5b50": 5025, "\u25811986": 5026, "\u2581\u6f58": 5027, "\u2581\u6000\u5b55": 5028, "\u2581\u80dc": 5029, "\u2581\u6276": 5030, "\u2581\u4e13\u9898": 5031, "\u2581\u6545\u610f": 5032, "\u2581\u5371\u673a": 5033, "\u2581\u5c3e": 5034, "\u2581\u7275": 5035, "\u83ab": 5036, "\u2581\u7c98": 5037, "\u2581180": 5038, "\u8d26": 5039, ".12": 5040, "\u2581\u5fae\u7b11": 5041, "\u2581\u552e\u540e": 5042, "\u80a5": 5043, "\u6025": 5044, "\u2581\u67aa": 5045, "\u76ee\u5f55": 5046, "\u2581\u5f3a\u5236": 5047, "\u2581\u5e73\u7b49": 5048, "\u2581\u9891": 5049, "\u2581\u5ba1\u67e5": 5050, "\u2581\u541b": 5051, "\u51e0": 5052, "\u682a": 5053, "\u2581\u53ec\u5f00": 5054, "\u2581\u5f1f": 5055, "\u8bf7": 5056, "ur": 5057, "\u7070": 5058, "\u2581\u5230\u5904": 5059, "\u2581\u5a01\u80c1": 5060, "\u2581\u751f\u6210": 5061, "\u2581\u5927\u4f1a": 5062, "\u7981": 5063, "\u2581\u8003\u5bdf": 5064, "\u2581\u6392\u9664": 5065, "\u2581\u6fc0\u5149": 5066, "\u2581\u5927\u81f4": 5067, "\u2581\u7761\u7720": 5068, "\u2581\u656c": 5069, "\u5206\u6790": 5070, "\u25813.5": 5071, "\u2581\u6696": 5072, "\u2581\u56e0\u800c": 5073, "\u6bc1": 5074, "\u2581\u53d7\u4f24": 5075, "\u2581\u7d22": 5076, "ter": 5077, "\u2581\u9009\u624b": 5078, "\u2581\u4e00\u4ee3": 5079, "\u71d5": 5080, "\u8180": 5081, "\u2581\u5ea7": 5082, "\u2581\u98d8": 5083, "\u2581\u5145\u7535": 5084, "\u2581\u7eb5": 5085, "77": 5086, "\u2581\u821e": 5087, "\u533b\u5b66": 5088, "\u2581\u51b2\u51fb": 5089, "\u2581\u52a0\u5feb": 5090, "\u2581\u7acb\u4f53": 5091, "\u2581\u6587\u79d1": 5092, "\u6876": 5093, "\u2581\u6253\u5de5": 5094, "\u2581\u5931\u671b": 5095, ".7": 5096, "\u2581\u80bf\u7624": 5097, "\u7eff": 5098, "\u884c\u4e3a": 5099, "\u2581\u4e8c\u6b21": 5100, "\u2581\u627f\u8bfa": 5101, "\u2581\u5357\u5317": 5102, "\u2581\u4e00\u5c42": 5103, "\u2581\u53d1\u80b2": 5104, "\u2581\u53e3\u5473": 5105, "\u2581\u74e6": 5106, "49": 5107, "\u2581\u65b0\u52a0\u5761": 5108, "\u258142": 5109, "\u2581\u4e00\u773c": 5110, "ate": 5111, "\u4e89": 5112, "\u2581\u6388": 5113, "\u2581\u9ebb": 5114, "\u2581\u96b6\u5c5e": 5115, "\u2581\u5b64": 5116, "\u2581\u7eb9": 5117, "\u6c47": 5118, "\u2581\u597d\u73a9": 5119, "\u2581\u79cd\u79cd": 5120, "\u2581\u840c": 5121, "\u2581\u54d2": 5122, "\u2581\u6fc0\u52a8": 5123, "\u79fb": 5124, "92": 5125, "\u2581\u82cd": 5126, "\u2581\u72fc": 5127, "36": 5128, "\u2581\u968f\u540e": 5129, "\u840c": 5130, "\u2581\u6291\u5236": 5131, "\u2581110": 5132, "\u2581\u533b\u836f": 5133, "\u2581\u5b66\u671f": 5134, "\u9645": 5135, "\u2581\u8e22": 5136, "\u2581\u9752\u5c11\u5e74": 5137, "\u2581\u5168\u662f": 5138, ".10": 5139, "\u2581\u9093": 5140, "\u2581\u6210\u4eba": 5141, "\u2581\u7acb\u5373": 5142, "\u2581\u4e8c\u662f": 5143, "\u8282\u76ee": 5144, "\u2581\u7535\u52a8": 5145, "\u2581\u552f": 5146, "\u2581\u4e3b\u89c2": 5147, "\u2013": 5148, "\u2581\u91d1\u94b1": 5149, "\u2581html": 5150, "\u2581\u90e8\u957f": 5151, "\u2581\u4e24\u5929": 5152, "\u2581\u4e0d\u826f": 5153, "\u2581\u969c\u788d": 5154, "\u2581\u5410\u69fd": 5155, "\u5a46": 5156, "\u9f84": 5157, "\u2581\u548b": 5158, "\u2581\u5df2\u6709": 5159, "\u6574": 5160, "\u2581\u4e07\u4eba": 5161, "\u2581\u5e9e": 5162, "\u8131": 5163, "\u258185": 5164, "\u2581\u8bcd\u6c47": 5165, "\u2581\u63a2": 5166, "\u0e51": 5167, "2.0": 5168, "\u2581\u5893": 5169, "\u2581\u6781\u5176": 5170, "\u2581\u8282\u80fd": 5171, "\u59bb": 5172, "\u2581\u9690": 5173, "\u5b59": 5174, "\u2581\u66f4\u5927": 5175, "\u2581\u6d4b": 5176, "\u611f\u89c9": 5177, "\u7ffb": 5178, "\u2581\u5f3a\u5ea6": 5179, "\u2581Android": 5180, "\u2581\u7b80\u4f53\u4e2d\u6587": 5181, "\u7978": 5182, "\u2581\u5531\u6b4c": 5183, "\u6b27": 5184, "\u7a7f": 5185, "\u2581\u878d\u8d44": 5186, "\u256f": 5187, "\u2581\u5f55\u97f3": 5188, "\u25813.1": 5189, "\u2581\u66f4\u4e3a": 5190, "\u2581\u5409\u4ed6": 5191, "\u6ce1": 5192, "\u2581\u571f\u58e4": 5193, "\u2581\u6df1\u6df1": 5194, "\u4f9d": 5195, "\u2581\u9017": 5196, "\u2581\u8e29": 5197, "\u53cd\u5e94": 5198, "at": 5199, "\u2581\u56de\u56fd": 5200, "\u2581\u970d": 5201, "\u2581\u5bc2\u5bde": 5202, "\u83c7": 5203, "\u2581\u4f5c\u66f2": 5204, "as": 5205, "\u6d9b": 5206, "\u2581\u7f16\u5267": 5207, "\u2581\u5f53\u4e8b": 5208, "\u2581\u727a\u7272": 5209, "\u2581\u4eba\u683c": 5210, "\u2581\u4e08": 5211, "im": 5212, "\u2581PC": 5213, "ml": 5214, "\u2581\u76c8\u5229": 5215, "\u2581\u529f\u7387": 5216, "\u2581\u516c\u4ea4": 5217, "\u2581\u5916\u51fa": 5218, "\u2581Intel": 5219, "\u65c5": 5220, "\u6b49": 5221, "\u7cae": 5222, "\u6ed1": 5223, "\u2581\u65b0\u4eba": 5224, "\u5c0a": 5225, "\u2581\u804c\u5de5": 5226, "\u2581\u6b63\u89c4": 5227, "\u2581\u9a8c\u8bc1": 5228, "\u2581\u8fdb\u7a0b": 5229, "\u25812.4": 5230, "\u2581\u76f8\u53cd": 5231, "\u4fdd\u9669": 5232, "\u2581\u4e1c\u4eac": 5233, "\u6d45": 5234, "\u2581\u659c": 5235, "\u2581\u94bb": 5236, "\u2581\u8bfe\u5802": 5237, "\u2581qq": 5238, "\u2581img": 5239, "\u516c\u91cc": 5240, "\u7816": 5241, "\u2581\u5ffd\u7565": 5242, "\u2581Pro": 5243, "\u7535\u5f71": 5244, "\u2581\u5415": 5245, "\u2581\u75af": 5246, "\u2581\u9ad8\u624b": 5247, "\u2581\u6781\u7aef": 5248, "\u258151": 5249, "\u2581\u51c9": 5250, "\u2581\u4f24\u5fc3": 5251, "\u2581\u58a8": 5252, "\u2581\u4e00\u65f6": 5253, "\u2581\u649e": 5254, "os": 5255, "\u2581\u7591": 5256, "\u2581\u8d28\u7591": 5257, "\u72c2": 5258, "\u2581\u5f62\u5bb9": 5259, "\u636e": 5260, "\u2581\u6210\u5e74": 5261, "\u72ec": 5262, "\u2581\u7b49\u4e8e": 5263, "\u4fa0": 5264, "\u8bd1": 5265, "\u7b26": 5266, "\u808c": 5267, "\u2581\u6652": 5268, "\u52a9": 5269, "\u2581\u6307\u70b9": 5270, "\u51ac": 5271, "\u2581\u6ed1": 5272, "\u2581\u4fe1\u5fc3": 5273, "\u6bd5": 5274, "ir": 5275, "\u2581\u4e00\u662f": 5276, "\u2581\u4e0d\u4f46": 5277, "\u5e08\u8303\u5927\u5b66": 5278, "\u2581\u5e02\u59d4": 5279, "\u2581\u7ade\u8d5b": 5280, "\u2581\u635f": 5281, "\u2581\u4e00\u756a": 5282, "ie": 5283, "\u4f4d\u7f6e": 5284, "\u6c89": 5285, "\u9014": 5286, "\u2581\u8eb2": 5287, "\u2581\u808c": 5288, "per": 5289, "\u2581\u6d6a\u6f2b": 5290, ".1": 5291, "\u5b5d": 5292, "\u5b85": 5293, "\u2581\u5173\u95ed": 5294, "\u2581\u8bde\u751f": 5295, "\u4ef7\u503c": 5296, "\u2581\u957f\u6c5f": 5297, "\u2581\u8ff7": 5298, "\u90c1": 5299, "\u2581\u6548\u5e94": 5300, "\u751c": 5301, "\u2581\u4eba\u4e8b": 5302, "\u2581\u5927\u4e00": 5303, "\u4e0d\u89c1": 5304, "\u2581\u63a5\u6536": 5305, "\u818f": 5306, "\u2581\u5fa1": 5307, "\u2581\u4e94\u4e2a": 5308, "\u2581\u505a\u996d": 5309, "\u2581\u4f20\u8f93": 5310, "\u2581\u5e7f\u64ad": 5311, "q": 5312, "\u2581\u9500": 5313, "\u537f": 5314, "\u2581\u62d3\u5c55": 5315, "\u2581\u4e0d\u9ad8": 5316, "\u2500": 5317, "---------------": 5318, "\u2581\u804c\u8d23": 5319, ".2": 5320, "\u2581\u56de\u62a5": 5321, "\u2299": 5322, "\u89c4": 5323, "\u901d": 5324, "\u8179": 5325, "\u2581\u9053\u6b49": 5326, "\u4f0f": 5327, "\u2581\u5fae\u5546": 5328, "\u2581\u5e72\u71e5": 5329, "\u8bca": 5330, "\u6d46": 5331, "\u2581\u6d59\u6c5f\u7701": 5332, "\u2581\u4f53\u5236": 5333, "\u9e7f": 5334, "\u2581211": 5335, "\u2581\u91ca": 5336, "\u2581\u62b1\u6028": 5337, "\u2581\u771f\u76f8": 5338, "\u2581\u9002\u5b9c": 5339, "\u2581\u663e\u8457": 5340, "\u2581\u65c1": 5341, "\u2581\u7529": 5342, "\u2581\u8fdd\u53cd": 5343, "\u2581\u4f18\u96c5": 5344, "\u2581\u653e\u4e0b": 5345, "\u7a84": 5346, "\u2581\u7814\u5236": 5347, "\u2581\u7f51\u6613": 5348, "\u84dd": 5349, "\u2581\u5b89\u9759": 5350, "\u2581\u5c0f\u5c0f": 5351, "\u2581\u4fdd\u5bc6": 5352, "\u5fe7": 5353, "\u2581\u8fde\u9501": 5354, "son": 5355, "\u2581\u788e": 5356, "\u2581\u7eff\u5316": 5357, "\u2581\u6570\u7801": 5358, "\u2581\u6324": 5359, "\u2581\u4f4e\u4e8e": 5360, "\u6cd5\u9662": 5361, "\u2581985": 5362, "\u2581\u4e34\u65f6": 5363, "\u997c": 5364, "\u2581\u91c7\u8bbf": 5365, "\u2581\u4f53\u5185": 5366, "\u804a": 5367, "ce": 5368, "\u2581APP": 5369, "20": 5370, "\u258165": 5371, "\u7239": 5372, "\u6587\u660e": 5373, "\u601d\u60f3": 5374, "\u2581\u5e08\u8303": 5375, "\u2581\u8d2b\u56f0": 5376, "\u2581\u5b50\u5973": 5377, "\u9022": 5378, "\u2581\u516c\u6c11": 5379, "\u2581\u64a4": 5380, "\u2581\u4e0d\u5403": 5381, "\u2581\u7ee7": 5382, "\u2581\u5404\u5927": 5383, "\u76c6": 5384, "\u2581\u516c\u5b89": 5385, "\u2581\u8427": 5386, "\u2581\u540d\u4eba": 5387, "\u2581\u50ac": 5388, "\u2581\u6f14\u8bb2": 5389, "\u4f01": 5390, "\u2581\u672f": 5391, "\u5019": 5392, "\u2581\u5e78\u8fd0": 5393, "\u2581\u8bc1": 5394, "\u2581\u8fdb\u5316": 5395, "\u8d6b": 5396, "\u2581\u5ba1\u6279": 5397, "\u2581\u4e2d\u6587\u540d": 5398, "\u2581\u4e60\u9898": 5399, "\u2581\u592b\u59bb": 5400, "\u2581\u624b\u91cc": 5401, "\u675f": 5402, "\u8170": 5403, "\u4e0d\u8be5": 5404, "\u2581\u6c6a": 5405, "\u2581\u64a9": 5406, "\u2581\u7528\u9014": 5407, "\u7f51\u7edc": 5408, "\u2581\u51ed\u501f": 5409, "\u2581\u6c14\u5019": 5410, "\u2581\u9898\u6750": 5411, "\u258158": 5412, "\u2581\u70ae": 5413, "72": 5414, "50": 5415, "\u6d69": 5416, "\u2581\u5fae\u8f6f": 5417, "\u2581\u8fd9\u8fb9": 5418, "\u2581\u79c1\u4eba": 5419, "\u2581\u62a4": 5420, "mo": 5421, "\u2581\u62b9": 5422, "\u2581\u86cb": 5423, "\u6d17": 5424, "\u52e4": 5425, "\u2581\u79fb": 5426, "\u2581\u65b0\u624b": 5427, "\u2581\u601d": 5428, "\u82ac": 5429, "\u2581\u56de\u5f52": 5430, "\u2581\u6d17\u51c0": 5431, "te": 5432, "\u2581\u6c1b": 5433, "\u2581\u7528\u5fc3": 5434, "\u2581\u82e5\u5e72": 5435, "\u2581\u5bb9\u91cf": 5436, "\u2581\u8584": 5437, "\u86c7": 5438, "\u2581\u91ca\u653e": 5439, "\u2581\u627f": 5440, "\u2581\u8dea": 5441, "\u2581\u6267\u6cd5": 5442, "\u2581\u773c\u6cea": 5443, "\u2581\u6bcf\u65e5": 5444, "\u62d4": 5445, "\u2581\u8463": 5446, "\u2581\u505c\u8f66": 5447, "age": 5448, "\u2581\u8fd0\u4f5c": 5449, "\u2581\u4e00\u4eba": 5450, "\u2581\u6258": 5451, "\u2581\u4f2a": 5452, "\u4f69": 5453, "\u2581\u6c34\u5229": 5454, "\u2581\u7231\u56fd": 5455, "\u2581\u9119": 5456, "\u2581\u4e89\u53d6": 5457, "\u2581\u4f20\u9012": 5458, "\u2581\u8ddd": 5459, "\u2581\u6587\u732e": 5460, "\u2581\u53a6\u95e8": 5461, "\u53ea": 5462, "\u2581\u7b2c\u5341\u4e8c": 5463, "\u2581\u591a\u5a92\u4f53": 5464, "\u2581\u5a5a\u793c": 5465, "\u2581\u5e7d": 5466, "\u2581\u75bc\u75db": 5467, "\u2581\u5e16": 5468, "\u2581\u4e00\u65b9": 5469, "\u2581\u73af\u8282": 5470, "\u2581\u6cb3\u5357\u7701": 5471, "\u58a8": 5472, "\u2581\u987e": 5473, "ma": 5474, "\u2581\u6559\u80b2\u90e8": 5475, "\u2581cn": 5476, "\u2581\u804c\u80fd": 5477, "\u2581\u780d": 5478, "\u4e60\u60ef": 5479, "\u6f20": 5480, "\u6ce5": 5481, "\u2581\u7535\u6d41": 5482, "\u2581\u7ea4\u7ef4": 5483, "\u2581\u963f\u91cc": 5484, "\u2581\u53ef\u601c": 5485, "\u2581\u6beb": 5486, "\u2581\u9887": 5487, "\u2581\u4e0d\u6b62": 5488, "\u2581\u89e3\u6790": 5489, "\u2581\u5341\u56db": 5490, "\u2581\u95ea": 5491, "\u2581k": 5492, "\u2581\u6ce5": 5493, "\u2581\u5730\u57df": 5494, "\u2581\u597d\u8bc4": 5495, "\u2581\u4e00\u95e8": 5496, "\u2581\u9a91\u58eb": 5497, "\u2581\u4e0d\u5728": 5498, "\u5e3d": 5499, "\u2581\u848b": 5500, "\u2581\u5212\u5206": 5501, "\u2581\u6797\u4e1a": 5502, "\u4f11": 5503, "\u63d0\u9ad8": 5504, "\u7624": 5505, "\u2581\u72b9": 5506, "\u529f\u80fd": 5507, "\u2581\u5341\u5927": 5508, "\u86cb\u767d": 5509, "\u2581\u573a\u6240": 5510, "\u2581\u81ea\u52a8\u5316": 5511, "45": 5512, "\u2581\u8fc7\u5ea6": 5513, "\u2581MP": 5514, "\u2581\u4e3e\u62a5": 5515, "\u2581\u620f\u5267": 5516, "\u6742": 5517, "\u2581\u62db\u751f": 5518, "\u2581\u6de1": 5519, "\u2581\u5bb9": 5520, "\u4e8b\u4e1a": 5521, "\u25811982": 5522, "\u2581\u8d27\u7269": 5523, "\u2581\u6c89": 5524, "\u2581\u8fd4": 5525, "\u2581\u4f20\u611f": 5526, "\u82d1": 5527, "\u504f": 5528, "\u2581\u9006": 5529, "\u2581\u7a7f\u8d8a": 5530, "\u60d1": 5531, "\u2581\u520a": 5532, "\u2581\u867e": 5533, "\u2581\u5192": 5534, "\u2581\u4e09\u5927": 5535, "\u2581\u8bf4\u670d": 5536, "\u8f68": 5537, "\u2581\u843d\u540e": 5538, "\u2581\u4e2d\u56fd\u5171\u4ea7\u515a": 5539, "\u99a8": 5540, "\u2581\u653e\u5927": 5541, "\u2581\u8363": 5542, "\u2581\u51e4\u51f0": 5543, "\u2581on": 5544, "\u2581\u8f86": 5545, "\u5300": 5546, "re": 5547, "\u2581\u51ef": 5548, "\u2581\u53f7\u7801": 5549, "\u559d": 5550, "\u2581\u671f\u671b": 5551, "\u67cf": 5552, "\u5efa\u8bbe": 5553, "\u2581\u62a5\u8b66": 5554, "\u2581\u5f55\u53d6": 5555, "\u5185\u5bb9": 5556, "\u2581\u597d\u4e45": 5557, "\u80d6": 5558, "\u2581\u52a0\u73ed": 5559, "15": 5560, "\u2581\u7f3a\u9677": 5561, "um": 5562, "\u751f\u6daf": 5563, "\u2581\u5e93": 5564, "\u2581\u5bfc": 5565, "\u2581\u8fc7\u654f": 5566, "\u2581\u9057\u4f20": 5567, "\u2581\u7f57\u9a6c": 5568, "\u2581\u4e00\u767e": 5569, "\u9636": 5570, "\u9769\u547d": 5571, "\u5e73\u53f0": 5572, "\u2581\u4f18\u5148": 5573, "\u2581\u6bc1": 5574, "\u2581\u6c11\u4f17": 5575, "\u2581\u4e89\u8bae": 5576, "\u4ea4\u901a": 5577, "\u4e00\u4ee3": 5578, "\u6668": 5579, "\u7433": 5580, "\u574a": 5581, "\u2581\u4ece\u672a": 5582, "\u2581\u5efa\u9020": 5583, "\u2581\u56ed\u6797": 5584, "\u2581\u7edd\u671b": 5585, "\u2581\u6b20": 5586, "\u2581\u603b\u6709": 5587, "\u2581\u695a": 5588, "\u2581\u5973\u4e3b": 5589, "\u25811983": 5590, "\u6b22\u8fce": 5591, "ac": 5592, "\u2581\u5929\u4f7f": 5593, "\u2581\u9501": 5594, "\u2581\u6fb3\u5927\u5229\u4e9a": 5595, "\u2581\u4e00\u58f0": 5596, "\u2581\u6212": 5597, "\u9707": 5598, "\u2581with": 5599, "\u53c9": 5600, "\u2581\u7b54\u5e94": 5601, ".4": 5602, "I": 5603, "\u2581\u5c40\u90e8": 5604, "\u2581\u4ee3\u66ff": 5605, "\u2581\u51e0\u53e5": 5606, "\u8303\u56f4": 5607, "\u2581\u6069": 5608, "\u2581\u5904\u5973": 5609, "\u2581\u5168\u7a0b": 5610, "MHz": 5611, "\u2581\u4ee5\u6b64": 5612, "\u8feb": 5613, "\u2581\u4e70\u623f": 5614, "\u2581\u5185\u5730": 5615, "\u52a8\u7269": 5616, "\u2581\u4e09\u5341": 5617, "\u2581\u671f\u520a": 5618, "\u2581II": 5619, "\u2581\u5949": 5620, "ne": 5621, "\u2581\u6316": 5622, "\u2581\u81ea\u884c\u8f66": 5623, "\u2581\u6280": 5624, "\u2581\u7fa1": 5625, "\u2581\u4e61\u9547": 5626, "\u2581\u9970\u6f14": 5627, "\u2581\u6e38\u5ba2": 5628, "\u258198": 5629, "\u2581\u796d": 5630, "\u94c3": 5631, "\u2581\u5b5f": 5632, "\u2581\u79d1\u666e": 5633, "\u258144": 5634, "mg": 5635, "\u2581\u798f\u5229": 5636, "\u2581\u7531\u6b64": 5637, "\u2581\u9177": 5638, "\u8017": 5639, "\u2581\u635f\u5bb3": 5640, "\u2581\u6b63\u4e49": 5641, "\u2581\u975e\u6d32": 5642, "\u2581\u673a\u5668\u4eba": 5643, "\u2581250": 5644, "\u2581r": 5645, "\u770b\u6765": 5646, "\u9636\u6bb5": 5647, "\u65c1": 5648, "\u73a9\u7b11": 5649, "\u2581\u62a5\u540d": 5650, "\u2581\u539f\u6587": 5651, "\u2581\u6bcf\u5468": 5652, "\u2581\u4e0d\u6015": 5653, "\u2581\u5f62\u72b6": 5654, "\u2581\u54af": 5655, "\u2581\u5929\u5730": 5656, "\u2581\u5e15": 5657, "\u2581\u4e3b\u673a": 5658, "\u51b3": 5659, "\u2581\u6253\u626e": 5660, "\u2581\u6c34\u6ce5": 5661, "\u2581\u7b14\u8bb0": 5662, "\u7fc1": 5663, "\u2581\u767e\u79d1": 5664, "\u2581\u6307\u6570": 5665, "\u2581\u6fc0\u70c8": 5666, "\u65b9\u4f4d": 5667, "\u2581No": 5668, "\u2581\u5404\u7ea7": 5669, "\u2581\u7535\u6c14": 5670, "\u2581\u5927\u4eba": 5671, "++": 5672, "\u2581\u5b66\u5230": 5673, "\u2581\u51fa\u8f68": 5674, "\u2581\u4eb2\u81ea": 5675, "\u2581\u6162\u6027": 5676, "\u2581\u8f90\u5c04": 5677, "\u7b7e": 5678, "96": 5679, "\u2581\u4eac": 5680, "ra": 5681, "\u2581\u6c5f\u5357": 5682, "ol": 5683, "\u2581\u5e7c": 5684, "\u8303": 5685, "\u2581\u517b\u751f": 5686, "\u2581\u9690\u85cf": 5687, "\u7fd4": 5688, "\u63a7\u5236": 5689, "\u2581\u897f\u85cf": 5690, "\u2581\u6ef4": 5691, "\u2581\u6218\u58eb": 5692, "\u2581\u4e00\u53e3": 5693, "\u7ec8": 5694, "\u6e23": 5695, "\u6208": 5696, "\u2581\u5076\u7136": 5697, "\u767e\u59d3": 5698, "\u2581\u7b80\u5386": 5699, "\u2581\u4ef7": 5700, "\u2581\u804c\u52a1": 5701, "\u54c1\u8d28": 5702, "\u56fa": 5703, "\u2581\u6293\u4f4f": 5704, "\u2581\u5468\u671f": 5705, ".3": 5706, "\u2581\u4e2d\u4ecb": 5707, "\u2581\u5168\u7701": 5708, "\u2581\u95fa\u871c": 5709, "\u2581\u62ff\u51fa": 5710, "\u4e60": 5711, "\u5f00\u653e": 5712, "\u5b8f": 5713, "43": 5714, "\u2581\u6e34\u671b": 5715, "\u2581\u957f\u6c99": 5716, "\u2581\u626b": 5717, "\u2581\u8428": 5718, "\u838e": 5719, "\u2581\u7537\u7968": 5720, "\u2581\u987a\u5e8f": 5721, "\u2581\u5317\u5927": 5722, "\u2581\u8d4c": 5723, "\u2581\u4e0d\u8bba": 5724, "\u25814.2": 5725, "\u6f14\u5458": 5726, "\u2581\u66f4\u6362": 5727, "\u2581VIP": 5728, "\u900a": 5729, "\u5507": 5730, "\u2581\u575a\u5b9a": 5731, "79": 5732, "\u2581\u9610": 5733, "\u2581\u6587\u7269": 5734, "U": 5735, "\u5146": 5736, "\u2581\u5077\u5077": 5737, "\u2581\u6d3b\u6027": 5738, "\u9e4f": 5739, "\u2581\u4eba\u95f4": 5740, "\u2581\u84b8": 5741, "\u73cd": 5742, "\u2581\u5929\u751f": 5743, "\u2581\u52a0\u70ed": 5744, "\u6548\u529b": 5745, "\u6e21": 5746, "\u2581\u672c\u4f1a": 5747, "\u2581\u706d": 5748, "\u6843": 5749, "\u6602": 5750, "\u2581\u6d77\u519b": 5751, "\u2581\u5154\u5b50": 5752, "\u2581\u624b\u6cd5": 5753, "\u2581\u5e7d\u9ed8": 5754, "\u7f13": 5755, "\u2581\u8bd5\u56fe": 5756, "\u2581\u6e7f": 5757, "\u2581\u524d\u666f": 5758, "\u25813.3": 5759, "\u2581\u6cbb\u7406": 5760, "\u4e0b\u5217": 5761, "\u2581\u65b0\u6d6a": 5762, "\u2581\u76f4\u5f84": 5763, "\u2581\u7a97\u53e3": 5764, "\u6210\u672c": 5765, "\u2581\u4e2d\u7b49": 5766, "\u2581\u7a33": 5767, "\u2581\u773c\u795e": 5768, "\u2581\u9676": 5769, "\u2581\u5938": 5770, "\u2581\u6d3b\u8dc3": 5771, "\u2581\u5927\u6c14": 5772, "\u2581\u5428": 5773, "\u2581\u5e1d\u56fd": 5774, "\u2581\u65e9\u5df2": 5775, "\u2581\u8054\u60f3": 5776, "\u2581\u6536\u8d2d": 5777, "\u25811500": 5778, "\u2581\u6279\u5224": 5779, "\u2581\u6309\u6469": 5780, "\u2581\u755c\u7267": 5781, "\u2581\u597d\u51e0": 5782, "\u2581\u9632\u5fa1": 5783, "\u589e": 5784, "\u6d88": 5785, "\u2581\u5965\u8fd0\u4f1a": 5786, "\u2581\u5b58": 5787, "\u2581\u7edd\u4e0d": 5788, "\u2581\u4eba\u6c14": 5789, "\u699c": 5790, "\u2581\u8fdc\u8fdc": 5791, "ent": 5792, "\u65fa": 5793, "\u51ef": 5794, "\u7b4b": 5795, "\u2581\u6c27\u5316": 5796, "\u2581\u7535\u68af": 5797, "\u2581\u771f\u8bda": 5798, "34": 5799, "\u2581\u653e\u677e": 5800, "\u2581\u623f\u4ef7": 5801, "\u2581\u4e00\u9053": 5802, "\u2581\u6e05\u6d17": 5803, "\u76d1\u7763\u7ba1\u7406": 5804, "\u2581\u5851\u9020": 5805, "\u4e0d\u51fa": 5806, "\u2581\u51f6": 5807, "\u2581\u8bf7\u6c42": 5808, "\u7ecf\u9a8c": 5809, "pa": 5810, "\u2581\u5d14": 5811, "\u2581\u4f20\u5a92": 5812, "\u7591": 5813, "\u827a\u672f\u5bb6": 5814, "\u2581\u5171\u4eab": 5815, "\u2581\u5927\u9053": 5816, "\u2581\u7ebd\u7ea6": 5817, "\u2581\u5174\u594b": 5818, "\u2581\u8d26\u6237": 5819, "\u2581\u773c\u524d": 5820, "\u2581\u6574\u5f62": 5821, "\u9756": 5822, "\u2581\u66ff\u4ee3": 5823, "\u2581\u8f9e\u804c": 5824, "\u2581\u53d8\u5f62": 5825, "\u2581\u6076\u610f": 5826, "\u6234": 5827, "\u2581\u8c61\u5f81": 5828, "\u2581\u773c\u4e2d": 5829, "\u2581\u9009\u4e3e": 5830, "\u2581\u8d1f\u9762": 5831, "\u2581\u8fd4\u56de": 5832, "\u2581\u67d4": 5833, "\u2581\u7985": 5834, "and": 5835, "\u258146": 5836, "\u2581\u731b": 5837, "\u8f88\u5b50": 5838, "\u5939": 5839, "\u2581\u542b\u4e49": 5840, "\u2581\u6ee4": 5841, "\u2581\u5bcc\u6709": 5842, "\u7edf": 5843, "\u5ef6": 5844, "\u2581re": 5845, "\u2581\u8377\u5170": 5846, "\u2581\u56db\u5ddd\u7701": 5847, "\u2581\u906d\u9047": 5848, "\u2581\u9189": 5849, "\u6545\u4e8b": 5850, "\u2581\u5927\u4e8e": 5851, "\u2581\u8bd7\u6b4c": 5852, "\u2581\u5c06\u4f1a": 5853, "\u2581\u89c2\u770b": 5854, "\u2581\u4fc3": 5855, "\u25811980": 5856, "\u2581\u8206\u8bba": 5857, "\u4e1b": 5858, "\u2581\u793e\u4f1a\u79d1\u5b66": 5859, "\u2581\u8f68\u9053": 5860, "\u2581\u56e2\u7ed3": 5861, "\u2581\u627f\u5305": 5862, "\u258143": 5863, "66": 5864, "\u7f9e": 5865, "\u60a6": 5866, "\u64cd\u4f5c": 5867, "\u2581\u9677\u5165": 5868, "44": 5869, "\u2581\u952e": 5870, "\u2581\u8b66": 5871, "\u2581\u5168\u4f53": 5872, "\u76df": 5873, "\u4e73": 5874, "\u2581\u60ac": 5875, "\u2581\u533a\u5206": 5876, "\u2581\u6fc0\u52b1": 5877, "\u2581\u4e1a\u7ee9": 5878, "\u2581\u683d\u57f9": 5879, "\u2581\u626b\u63cf": 5880, "\u9057\u5740": 5881, "\u2581\u6fc0\u60c5": 5882, "\u2581\u8bcd\u8bed": 5883, "\u2581\u4ecb": 5884, "\u2581\u5145": 5885, "\u2581\u4e73": 5886, "\u2581\u8033\u6735": 5887, "\u2581\u5bfb\u6c42": 5888, "\u6355": 5889, "\u2581\u8d5e\u540c": 5890, "\u5f15\u7528": 5891, "\u2581\u8fa3": 5892, "\u2581\u5f3a\u8feb": 5893, "\u2581\u4fd7": 5894, "\u2581\u4e50\u8da3": 5895, "\u2581\u4e25\u8c28": 5896, "\u2581160": 5897, "\u2581\u751f\u610f": 5898, "\u2581\u5929\u7a7a": 5899, "\u2581\u6597\u4e89": 5900, "\u2581\u6e14": 5901, "\u7709": 5902, "\u2581\u84dd\u8272": 5903, "\u2581\u5927\u4e13": 5904, "\u2581\u538b\u7f29": 5905, "\u57ab": 5906, "\u7626": 5907, "\u7126": 5908, "0.00": 5909, "\u2581\u7b54\u9898": 5910, "\u2581\u8840\u7ba1": 5911, "\u2581\u7816": 5912, "\u88d5": 5913, "\u2581\u6a21\u4eff": 5914, "\u2581\u667a": 5915, "\u2581\u5916\u90e8": 5916, "\u2581LED": 5917, "\u2581\u8d26\u53f7": 5918, "\u6734": 5919, "\u2581\u4e1a\u4f59": 5920, "\u2581\u4eca\u540e": 5921, "ge": 5922, "\u2581\u76f8\u673a": 5923, "33": 5924, "\u2581\u62d4": 5925, "\u2581it": 5926, "\u2581\u543e": 5927, "\u2581\u58ee": 5928, "\u2581\u53e5\u5b50": 5929, "\u2581\u65b0\u751f": 5930, "\u258156": 5931, "\u2581\u5d29\u6e83": 5932, "\u7535\u89c6": 5933, "\u2581\u624b\u6307": 5934, "\u2581St": 5935, "\u2581\u672a\u77e5": 5936, "\u2581\u8fc1": 5937, "\u7891": 5938, "\u2581\u5b89\u5353": 5939, "\u2581\u4e0d\u6ee1": 5940, "\u2581\u78a7": 5941, "\u2581\u641e\u7b11": 5942, "\u7b2c": 5943, "\u2581\u5b9c": 5944, "\u2581\u5f00\u5173": 5945, "\u2581\u5457": 5946, "\u2581\u4e00\u4e00": 5947, "91": 5948, "\u2581\u822a": 5949, "\u4e0d\u77e5": 5950, "\u2581\u5165\u9009": 5951, "\u2581\u5531\u7247": 5952, "\u664b": 5953, "\u2581\u6d1b": 5954, "\u2581\u9891\u9053": 5955, "\u2581\u8471": 5956, "\u56f0": 5957, "\u5212": 5958, "\u7ee7": 5959, "\u2581\u9519\u8fc7": 5960, "\u5dfe": 5961, "\u2581\u540e\u679c": 5962, "\u2581\u53e3\u8154": 5963, "\u258152": 5964, "\u2581\u7406\u5de5": 5965, "\u60c5\u51b5": 5966, "\u2581\u8461\u8404": 5967, "\u258141": 5968, "\u2581\u699c": 5969, "38": 5970, "\u2581\u7ae5\u5e74": 5971, "\u2581\u6539\u7f16": 5972, "\u2581\u624e": 5973, "\u2581000": 5974, "\u5983": 5975, "\u2581\u73a9\u5177": 5976, "\u2581\u5f00\u62d3": 5977, "\u9605": 5978, "\u2581\u8fdb\u6765": 5979, "\u2581\u6109": 5980, "\u2581\u8336\u53f6": 5981, "\u2581\u7edf": 5982, "\u2581\u5e05": 5983, "\u680f": 5984, "\u2581\u6d0b": 5985, "\u59cb": 5986, "\u2581\u8def\u9762": 5987, "\u72fc": 5988, "\u258147": 5989, "\u2581\u7a81": 5990, "\u2581\u8bb2\u89e3": 5991, "\u6c14\u6e29": 5992, "\u7f69": 5993, "\u4f1a\u8bae": 5994, "\u5982\u6b64": 5995, "\u8f96": 5996, "\u7a74": 5997, "\u2581\u4eba\u5927": 5998, "\u2581\u8bed\u6cd5": 5999, "\u2581\u521d\u6b65": 6000, "\u5e2d": 6001, "\u4e00\u679a": 6002, "\u8c6a": 6003, "19": 6004, "\u2581\u57ce\u9547": 6005, "\u2581\u9f13": 6006, "\u638c": 6007, "\u2581\u9632\u5b88": 6008, "23": 6009, "\u2581\u65b9\u8a00": 6010, "\u2581\u8fc8": 6011, "\u2581\u4e13\u9879": 6012, "\u94f6": 6013, "\u9177": 6014, "\u2581\u4e24\u4e09": 6015, "\u2581\u7f3a\u5c11": 6016, "\u2581\u6a21\u7cca": 6017, "\u6267\u884c": 6018, "lo": 6019, "\u54c1\u724c": 6020, "\u2581\u7a0e\u52a1": 6021, "\u2581\u5b9e\u6218": 6022, "\u5e7f\u544a": 6023, "\u76ee\u6807": 6024, "\u2581\u7384": 6025, "\u2581\u5f25": 6026, "\u2581\u53a8\u623f": 6027, "\u821f": 6028, "\u4e00\u523b": 6029, "\u25c6": 6030, "\u2581\u5341\u4e03": 6031, "\u2581IP": 6032, "\u2581\u65cb\u8f6c": 6033, "\u6562": 6034, "\u85e4": 6035, "\u2581Me": 6036, "\u2581\u4eca\u65e5": 6037, "\u2581\u62c9\u4e01": 6038, "\u59ff": 6039, "\u2581\u5df4\u9ece": 6040, "\u89c4\u5b9a": 6041, "\u2581\u5df4\u897f": 6042, "\u8fa9": 6043, "\u2581\u7535\u78c1": 6044, "\u2581\u957f\u76f8": 6045, "\u2581\u4e2d\u5c0f": 6046, "\u2581\u9732": 6047, "\u624b\u673a": 6048, "\u2581\u65e0\u9700": 6049, "\u2581\u4e43\u81f3": 6050, "\u5492": 6051, "\u2581\u9171": 6052, "\u2581that": 6053, "\u505a\u4e8b": 6054, "\u6f6d": 6055, "\u2581\u679c\u7136": 6056, "\u2581\u8d1f\u62c5": 6057, "\u2581\u6068": 6058, "\u2581\u4e3b\u529e": 6059, "\u987b": 6060, "\u2581\u5c16": 6061, "\u2581\u4ed6\u4f1a": 6062, "\u2581\u80a5": 6063, "\u2581\u5c0f\u578b": 6064, "\u6676": 6065, "\u2581\u6b21\u6570": 6066, "\u2581\u997f": 6067, "\u2581\u4e00\u4e07": 6068, "\u2581\u71c3\u70e7": 6069, "\u2581\u4e00\u8138": 6070, "\u2581\u53ef\u7528": 6071, "\u2581\u60c5\u666f": 6072, "\u2581\u81ea\u79c1": 6073, "\u63a8": 6074, "\u2581\u59ff": 6075, "\u516c\u56ed": 6076, "\u2581\u7533": 6077, "\u72ac": 6078, "\u9752\u5e74": 6079, "\u2581\u6321": 6080, "\u2581\u5375": 6081, "\u4ed7": 6082, "\u88d4": 6083, "\u2581\u9ea6\u514b": 6084, "\u5cb3": 6085, "\u2581\u7126\u8651": 6086, "\u2581\u4e0a\u7ea7": 6087, "\u2581\u8d77\u7801": 6088, "\u9171": 6089, "\u2581\u4e0d\u613f": 6090, "\u2581\u6700\u5c0f": 6091, "\u2581\u5a5a": 6092, "\u6912": 6093, "\u2581\u8f9e": 6094, "\u2581\u725b\u5976": 6095, "\u2581\u80f6": 6096, "\u2581\u9635": 6097, "100": 6098, "\u74dc": 6099, "18": 6100, "\u2581\u61d2": 6101, "\u6101": 6102, "\u4e38": 6103, "\u2581no": 6104, "25": 6105, "\u2581\u8d54\u507f": 6106, "\u2581\u60b2\u5267": 6107, "\u8f69": 6108, "\u2581\u591a\u9879": 6109, "\u58f6": 6110, "\u2581\u8131\u79bb": 6111, "\u6deb": 6112, "\u2581\u540c\u884c": 6113, "\u2581\u4e09\u6b21": 6114, "\u2581\u7406\u79d1": 6115, "\u7528\u54c1": 6116, "\u2581\u7cbe\u5fc3": 6117, "\u2581\u5e94\u6025": 6118, "\u5de5\u5177": 6119, "\u6ef4": 6120, "\u60ca": 6121, "\u9690": 6122, "\u6e05\u695a": 6123, "\u6bc5": 6124, "\u7a9d": 6125, "\u2581\u725b\u8089": 6126, "\u71c3": 6127, "\u2581\u52ff": 6128, "\u25811.6": 6129, "\u2581\u6cf0\u56fd": 6130, "\u2581\u7cbe\u51c6": 6131, "\u2581\u4e0d\u5e78": 6132, "\u2581\u52c7\u6562": 6133, "\u2581\u4f5c\u6587": 6134, "\u4e0d\u5f97": 6135, "\u2581\u5feb\u9012": 6136, "\u2581\u989c\u503c": 6137, "\u2581\u7814\u7a76\u9662": 6138, "\u2581\u70ed\u6c34": 6139, "\u2581\u8f9b": 6140, "\u68af": 6141, "\u2581\u7126": 6142, "\u2581\u63cf\u5199": 6143, "\u7eaf": 6144, "\u2581\u5de1": 6145, "\u2581\u80a1\u4e1c": 6146, "\u2581\u57c3": 6147, "\u2581\u6c88\u9633": 6148, "\u258197875": 6149, "\u2581\u901a\u9053": 6150, "\u2581\u66b4\u9732": 6151, "\u2581\u75d8": 6152, "\u2581\u9000\u51fa": 6153, "\u2581\u90fd\u5e02": 6154, "\u2581\u52a9\u7406": 6155, "\u2581\u66ff": 6156, "\u2581\u5e38\u89c4": 6157, "\u2581\u591a\u6837": 6158, "\u2581\u5c40\u9650": 6159, "\u306a": 6160, "\u2581\u7b2c\u5341\u4e09": 6161, "\u2581\u52a0\u5927": 6162, "\u2581\u5feb\u6377": 6163, "\u2581\u4fdd\u517b": 6164, "\u6108": 6165, "\u2581\u57ce\u4e61": 6166, "\u2581\u7ec6\u83cc": 6167, "\u2581\u5a01": 6168, "\u2581\u6295\u7968": 6169, "\u25814.1": 6170, "\u8058": 6171, "\u2581\u623f\u4ea7": 6172, "\u827a\u672f": 6173, "\u6548\u7387": 6174, "\u2581\u5bfc\u822a": 6175, "\u523a": 6176, "\u75d2": 6177, "to": 6178, "\u2581\u8001\u5b50": 6179, "\u2581\u52c7\u58eb": 6180, "\u2581\u5f2f": 6181, "\u2581\u6361": 6182, "\u65ec": 6183, "\u2581\u63d0\u53d6": 6184, "\u2581\u9b54\u517d": 6185, "\u809d": 6186, "\u70e7": 6187, "\u2581\u4e00\u5e26": 6188, "\u2581\u7259\u9f7f": 6189, "\u2581\u4e0e\u5176": 6190, "\u2581\u8fbe\u6210": 6191, "\u2581\u90d1\u5dde": 6192, "\u2581\u77e3": 6193, "\u2581\u54b8": 6194, "\u2581\u58f0\u660e": 6195, "\u2581\u5c82": 6196, "\u2581\u534e\u4e3a": 6197, "\u2581\u6301": 6198, "\u82bd": 6199, "\u2581\u4e0a\u6620": 6200, "\u51fa\u53bb": 6201, "\u2581\u515a\u7ec4": 6202, "\u6da8": 6203, "\u25815.2": 6204, "\u2581\u7591\u95ee": 6205, "\u2581\u4e3e\u4e2a": 6206, "\u2581\u6784\u9020": 6207, "\u2581\u5927\u89c4\u6a21": 6208, "\u2581\u8fc7\u5e74": 6209, "\u628a": 6210, "\u2581\u5353\u8d8a": 6211, "\u2581\u52c7\u6c14": 6212, "\u2581\u767d\u5929": 6213, "\u2581NBA": 6214, "\u2581\u8865\u507f": 6215, "\u4fbf\u662f": 6216, "\u2581\u7533\u62a5": 6217, "\u2581\u626e\u6f14": 6218, "\u2581\u66dd\u5149": 6219, "\u8f91": 6220, "\u2581\u83b1": 6221, "\u2581\u7eb3\u7a0e": 6222, "\u2581\u989d": 6223, "\u2581\u68c9": 6224, "\u5faa\u73af": 6225, "\u878d": 6226, "\u2581\u73b0\u91d1": 6227, "\u2581\u60e8": 6228, "\u2581\u4eba\u529b\u8d44\u6e90": 6229, "\u576a": 6230, "\u2581\u4e2d\u5c0f\u5b66": 6231, "\u2581\u60c5\u4fa3": 6232, "\u6842": 6233, "\u2581\u6d88\u9632": 6234, "\u6297": 6235, "\u62e9": 6236, "\u2581\u9ad8\u4e8e": 6237, "86": 6238, "\u59ae": 6239, "\u81ea\u7136": 6240, "\u2581\u542c\u542c": 6241, "\u95f9": 6242, "\u2581\u5bf9\u6297": 6243, "\u4eba\u7269": 6244, "\u9152\u5e97": 6245, "\u2581\u5b66\u58eb": 6246, "\u2581\u4e94\u5341": 6247, ".11": 6248, "93": 6249, "\u2581\u996e": 6250, "\u2581\u54e5\u4eec": 6251, "\u2581\u521b\u7acb": 6252, "\u8fb0": 6253, "\u7cdf": 6254, "\u54c0": 6255, "\u4eba\u624d": 6256, "\u2581\u62cc": 6257, "se": 6258, "\u9888": 6259, "\u763e": 6260, "\u2581\u51c0": 6261, "\u2581\u6c14\u4f53": 6262, "\u2581\u4e0b\u73ed": 6263, "\u4e0d\u8bf4": 6264, "\u2581\u5546\u6807": 6265, "\u7a57": 6266, "\u2581\u9632\u62a4": 6267, "\u2581Google": 6268, "\u2581\u843d\u5b9e": 6269, "\u6ee9": 6270, "\u2581\u6df7\u4e71": 6271, "\u2581\u86c7": 6272, "\u2581\u7535\u4fe1": 6273, "\u2581\u9996\u53d1": 6274, "\u9c9c": 6275, "\u2581\u4f73": 6276, "\u2581\u5267\u672c": 6277, "\u2581\u827a\u4eba": 6278, "\u2581\u5355\u8bcd": 6279, "\u2581\u56fd\u738b": 6280, "\u9614": 6281, "\u2581\u4e00\u9635": 6282, "\u2581\u8bfa": 6283, "\u53f3": 6284, "\u2581\u7ba1\u8f96": 6285, "\u2581j": 6286, "ai": 6287, "\u2581\u503e": 6288, "\u2581130": 6289, "\u2581\u5f3a\u884c": 6290, "\u2581\u622a\u6b62": 6291, "\u2581\u8d77\u6e90": 6292, "\u2581\u7eb7\u7eb7": 6293, "\u2581\u77ee": 6294, "\u2581\u6807\u9898": 6295, "\u2581\u810f": 6296, "\u2581\u77ed\u671f": 6297, "\u9526": 6298, "\u2581\u4f18\u826f": 6299, "\u5851": 6300, "\u2581\u517b\u6210": 6301, "\u2581\u9ec4\u8272": 6302, "\u2581\u53d1\u75c5": 6303, "\u2581\u8fdc\u7a0b": 6304, "\u76fe": 6305, "\u2581\u53cb\u597d": 6306, "ment": 6307, "\u2581\u72ec\u81ea": 6308, "\u2581\u8d44\u8baf": 6309, "\u2581\u5916\u4ea4": 6310, "\u2581\u4e07\u5e73\u65b9": 6311, "\u2581\u5176\u4f59": 6312, "\u786c": 6313, "\u51cf": 6314, "\u2581\u51e0\u767e": 6315, "\u2581\u9488": 6316, "\u25814000": 6317, "ch": 6318, "\u8d1e": 6319, "\u2581\u6c49\u5b57": 6320, "\u2581\u5ea6\u8fc7": 6321, "\u2581so": 6322, "\u2581\u6d17\u8863": 6323, "\u2581\u51fa\u8272": 6324, "\u6021": 6325, "\u2581\u81ea\u89c9": 6326, "\u63aa\u65bd": 6327, "\u2581\u8eab\u4efd\u8bc1": 6328, "\u6c83": 6329, "\u2581\u516c\u4ea4\u8f66": 6330, "\u4ebf": 6331, "\u2581\u5b9d\u8d1d": 6332, "\u2581\u522b\u8bf4": 6333, "\u2581\u5929\u624d": 6334, "\u67d3": 6335, "\u521b\u65b0": 6336, "\u2581\u4f20\u627f": 6337, "\u4e3a\u6b64": 6338, "\u2581\u8c46\u8150": 6339, "\u2581\u5728\u6211": 6340, "\u2581\u56fd\u6c11\u515a": 6341, "\u2581\u52a8\u624b": 6342, "57": 6343, "\u2581\u670d\u9970": 6344, "\u2581\u8d77\u5e8a": 6345, "\u2581\u5b9e\u65f6": 6346, "\u2581\u4faf": 6347, "\u2581\u536b\u661f": 6348, "\u2581\u66f2\u7ebf": 6349, "\u2581\u5fc3\u810f": 6350, "\u9662\u6821": 6351, "\u2581\u95fb": 6352, "\u2581\u8c6a\u534e": 6353, "\u8f93": 6354, "200": 6355, "\u2581\u5ef6\u4f38": 6356, "\u2581\u8fdb\u7403": 6357, "\u2581\u521d\u604b": 6358, "\u2581\u9676\u74f7": 6359, "\u2581\u82f1\u683c\u5170": 6360, "\u9897": 6361, "\u2581\u79d8": 6362, "\u8d62": 6363, "\u2581\u8c37": 6364, "\u2581ISO": 6365, "\u9a82": 6366, "\u2581\u7248\u6743": 6367, "\u2581\u6587\u6863": 6368, "\u89c4\u5219": 6369, "\u2581\u7ae5": 6370, "\u2581\u89c9": 6371, "\u2581\u5f69\u8272": 6372, "\u2581\u5509": 6373, "\u2581by": 6374, "\u2581pro": 6375, "\u2581\u56fd\u6709": 6376, "\u2581\u8c46": 6377, "\u63a2": 6378, "\u7cbe\u81f4": 6379, "\u2581\u5c65\u884c": 6380, "\u2581\u4e0d\u7231": 6381, "\u2581\u9a84\u50b2": 6382, "\u2581\u5c55\u89c8": 6383, "\u2581\u4e00\u770b": 6384, "\u2581\u79cd\u65cf": 6385, "\u2581\u63d0\u4ea4": 6386, "\u2581\u4e24\u4f4d": 6387, "\u5e16": 6388, "IC": 6389, "\u4e18": 6390, "\u2581\u540e\u7eed": 6391, "\u2581\u5192\u9669": 6392, "\u2581\u521b\u59cb": 6393, "\u2581\u535a\u5ba2": 6394, "\u2581\u8bf8\u591a": 6395, "\u2581my": 6396, "\u81ea\u6cbb\u533a": 6397, "\u2581\u8be6": 6398, "\u2581\u4e2d\u90e8": 6399, "\u8361": 6400, "\u2581\u773c\u5149": 6401, "\u2581\u522e": 6402, "\u2581\u90ae\u4ef6": 6403, "\u2581\u67b6\u6784": 6404, "ip": 6405, "\u2581\u5e38\u5e74": 6406, ".5": 6407, "\u2581\u4e3b\u529b": 6408, "\u7092": 6409, "\u2581\u5c81\u6708": 6410, "\u2581\u6f14\u594f": 6411, "\u2581\u6d17\u6fa1": 6412, "\u2581\u5f97\u51fa": 6413, "\u2581\u4e8c\u5e74": 6414, "\u25811978": 6415, "\u2581\u5927\u8fde": 6416, "\u2581\u6851": 6417, "\u80c6": 6418, "\u2581from": 6419, "\u2581\u514b\u670d": 6420, "\u2581\u773c\u955c": 6421, "\u2581\u809a\u5b50": 6422, "\u2581\u54c8\u5c14\u6ee8": 6423, "ry": 6424, "65": 6425, "\u2581\u8d4f": 6426, "\u25814.3": 6427, "\u2581\u60f9": 6428, "\u2581\u7ed5": 6429, "\u2581\u8f74": 6430, "\u2581\u63d2\u69fd": 6431, "em": 6432, "\u63a5\u53e3": 6433, "\u94ed": 6434, "are": 6435, "\u2581\u70ed\u95e8": 6436, "\u2581\u6682": 6437, "\u2581\u516c\u5bd3": 6438, "\u2581\u4e25\u8083": 6439, "\u2581\u65e0\u529b": 6440, "\u2581\u6253\u7834": 6441, "\u2581\u6bdb\u6cfd\u4e1c": 6442, "ive": 6443, "\u9694": 6444, "\u2581\u53e3\u7891": 6445, "\u2581\u60b2\u4f24": 6446, "\u2581\u7cbe\u534e": 6447, "\u2581\u523b\u610f": 6448, "\u2581\u6df1\u5733\u5e02": 6449, "\u2581\u667a\u529b": 6450, "\u2581\u5a74\u513f": 6451, "\u2581\u6625\u79cb": 6452, "\u2581\u7164": 6453, "\u9189": 6454, "\u2581\u996e\u6599": 6455, "\u2581\u751f\u80b2": 6456, "\u2581\u597d\u542c": 6457, "\u2581\u6df7\u51dd\u571f": 6458, "\u9882": 6459, "\u2581\u59d3": 6460, "\u2581\u53d1\u8d77": 6461, "\u6377": 6462, "\u2581\u6d41\u4f20": 6463, "\u2581\u5c71\u6c34": 6464, "\u9676": 6465, "\u2581\u5bbe\u9986": 6466, "\u2581\u8d44\u8d28": 6467, "\u804c\u5de5": 6468, "\u2581\u5e08\u8d44": 6469, "26": 6470, "est": 6471, "\u2581\u8499\u53e4": 6472, "\u2581\u7a7a\u4e2d": 6473, "\u7eed": 6474, "\u2581\u4e00\u8eab": 6475, "\u2581\u795e\u8bdd": 6476, "\u8776": 6477, "\u6587\u4ef6": 6478, "\u2581\u4e0d\u6613": 6479, "\u305f": 6480, "\u6548\u76ca": 6481, "\u2581\u7259": 6482, "\u2581\u4f34": 6483, "\u2581\u5927\u53d4": 6484, "\u4e25": 6485, "\u2581\u7968": 6486, "\u2581\u6e56\u5317\u7701": 6487, "\u2581\u5e0c": 6488, "\u2581\u5c0a": 6489, "\u2581\u672a\u5fc5": 6490, "\u2581\u4ece\u4e0d": 6491, "\u2581\u8d22": 6492, "\u2581\u6821\u533a": 6493, "\u62fc": 6494, "\u2581\u8425": 6495, "\u2581\u653f": 6496, "\u4ea4\u6d41": 6497, "\u2581\u6740\u6b7b": 6498, "\u2581\u6218\u672f": 6499, "\u2581\u5e7c\u7a1a": 6500, "\u2581\u9000\u4f11": 6501, "\u2581\u5e8f": 6502, "\u2581\u5b9e\u8bad": 6503, "\u2581\u6e56\u5357\u7701": 6504, "\u2581\u524d\u7aef": 6505, "\u2581\u8c6a": 6506, "\u2581\u638f": 6507, "\u829d": 6508, "\u2581\u80a1\u5e02": 6509, "\u2581\u4e00\u8f86": 6510, "\u2581\u767e\u5e74": 6511, "\u2581\u96fe": 6512, "\u2581\u4e00\u4f1a": 6513, "\u2581\u624b\u4e2d": 6514, "\u5bb4": 6515, "\u2581\u751f\u52a8": 6516, "76": 6517, "\u2581\u53d1\u52a8": 6518, "\u2581\u4e3b\u5bfc": 6519, "\u2581\u795d\u798f": 6520, "\u6469": 6521, "\u6e0a": 6522, "\u2581\u62e8": 6523, "\u2581\u57cb": 6524, "\u2581\u6c47": 6525, "\u2581\u5916\u8bed": 6526, "\u2581\u51d1": 6527, "\u2581\u6e05\u65b0": 6528, "\u2581\u53d4": 6529, "\u2581\u6cdb": 6530, "\u2581\u52bf\u529b": 6531, "\u96d5": 6532, "\u4e0d\u53ef": 6533, "\u6905": 6534, "\u2581\u5de5\u5546": 6535, "\u2581\u610f\u5fd7": 6536, "\u2581\u901a\u7535": 6537, "\u2581\u7ea6\u5b9a": 6538, "\u4faf": 6539, "\u2581\u6d41\u901a": 6540, "\u5168\u4e66": 6541, "\u2581\u5706\u5f62": 6542, "\u2581\u813e\u6c14": 6543, "\u2581\u522b\u5885": 6544, "\u6620": 6545, "\u2581\u6d4b\u5b9a": 6546, "\u2581\u516d\u5e74": 6547, "\u2581\u8d8a\u5357": 6548, "54": 6549, "\u2581\u9ad8\u7b49\u6559\u80b2": 6550, "\u5bbf": 6551, "\u2581\u5178": 6552, "\u2581\u745e": 6553, "\u2581\u53cd\u9a73": 6554, "\u59d1\u5a18": 6555, "\u2581\u8fa9\u8bba": 6556, "\u2581\u670d\u7528": 6557, "\u2581\u6295\u5f71": 6558, "\u2581\u5b63\u8282": 6559, "\u2581\u9178": 6560, "\u7897": 6561, "\u2581\u8f7b\u8f7b": 6562, "\u2581\u6781\u9650": 6563, "\u2581\u73ab\u7470": 6564, "\u2581\u770b\u4e0a": 6565, "\u2581\u5e73\u5b89": 6566, "\u2581\u65a9": 6567, "\u2581\u5317\u4eac\u5927\u5b66": 6568, "\u2581dota": 6569, "\u6ea2": 6570, "\u2581\u9ad8\u901f\u516c\u8def": 6571, "\u2581\u5b8f\u89c2": 6572, "\u5316\u5b66": 6573, "\u2581DVD": 6574, "\u8fc7\u6765": 6575, "\u2581\u78c1": 6576, "\u2581\u56fe\u6848": 6577, "\u6851": 6578, "\u2581\u53d6\u4ee3": 6579, "\u2581\u7acb\u6cd5": 6580, "\u5510": 6581, "\u2581\u5927\u8857": 6582, "\u2581\u5357\u90e8": 6583, "\u2581\u6dd8\u6c70": 6584, "\u2581\u8d35\u5dde": 6585, "\u8bc9": 6586, "\u2581\u4e09\u89d2": 6587, "\u2581\u5e02\u653f\u5e9c": 6588, "\u2581\u5f88\u4e45": 6589, "\u2581\u5d07": 6590, "\u5408\u540c": 6591, "\u2581\u53bf\u7ea7": 6592, "\u9996\u6b4c": 6593, "\u2581\u5409\u6797": 6594, "\u2581\u7ecf\u8d39": 6595, "\u9053\u5fb7": 6596, "\u2581\u9996\u90fd": 6597, "\u2581\u6309\u94ae": 6598, "\u2581\u6a21\u7279": 6599, "\u2581\u6218\u573a": 6600, "\u6790": 6601, "\u871c": 6602, "\u2581ng": 6603, "\u6b8b": 6604, "\u9738": 6605, "io": 6606, "\u2581\u7f18": 6607, "\u5954": 6608, "\u820c": 6609, "\u2581\u5e1d": 6610, "83": 6611, "\u2581\u62ef\u6551": 6612, "\u2581\u8fbd\u5b81": 6613, "\u2581\u8e72": 6614, "\u2581\u611f\u5192": 6615, "\u2581\u6709\u5229": 6616, "\u80f8": 6617, "\u2581\u53cb\u8c0a": 6618, "\u2581\u5927\u53a6": 6619, "\u6210\u7ee9": 6620, "\u2581\u963b\u6b62": 6621, "\u2581\u521d\u7ea7": 6622, "\u2581\u77f3\u5934": 6623, "\u2581\u5317\u90e8": 6624, "our": 6625, "\u2581\u53e6\u4e00": 6626, "\u2581\u6d77\u5357": 6627, "\u68da": 6628, "\u2581\u76f8\u4eb2": 6629, "\u2581\u597d\u611f": 6630, "\u2581\u5e72\u6270": 6631, "\u2581\u5c04": 6632, "\u2581height": 6633, "\u2581\u6251": 6634, "\u6052": 6635, "\u4e4b\u5904": 6636, "\u2581\u6e58": 6637, "\u2581\u7334": 6638, "IN": 6639, "ers": 6640, "\u5319": 6641, "\u2581\u53d1\u97f3": 6642, "\u2581\u51b2\u52a8": 6643, "\u2581\u6458": 6644, "\u2581\u4e00\u526f": 6645, "\u2581\u66fe\u4efb": 6646, "\u4e2d\u5b66": 6647, "\u2581\u6e05\u534e": 6648, "\u2581\u524d\u8fdb": 6649, "\u5bc6\u5ea6": 6650, "\u2581\u4eb2\u4eba": 6651, "81": 6652, "\u2581\u4f26\u6566": 6653, "\u2570": 6654, "\u7a77": 6655, "ba": 6656, "\u2581\u8f6c\u578b": 6657, "\u2581\u5546\u57ce": 6658, "\u2581\u52a0\u4ee5": 6659, "\u2581\u5ea6\u5047": 6660, "\u8f83": 6661, "\u2581\u5426\u5b9a": 6662, "\u2581\u6574\u5929": 6663, "\u2581\u94dd": 6664, "\u2581\u6c34\u5206": 6665, "\u25815.1": 6666, "84": 6667, "\u2581\u6df1\u53d7": 6668, "\u2581\u6709\u4f55": 6669, "one": 6670, "\u2581CD": 6671, "\u2581\u5c3d\u53ef\u80fd": 6672, "\u2581\u604b": 6673, "\u90aa": 6674, "75": 6675, "\u2581\u8fd1\u4ee3": 6676, "\u2581\u5782\u76f4": 6677, "\u6b23": 6678, "\u2581\u7edd\u5927\u591a\u6570": 6679, "\u4e3b\u89d2": 6680, "\u2581\u5ca9": 6681, "\u2581Li": 6682, "\u25811.8": 6683, "\u51c0": 6684, "\u2581\u5766\u514b": 6685, "\u2581\u95ed": 6686, "\u6f0f": 6687, "\u2581\u7b11\u8bdd": 6688, "\u2581\u7269\u79cd": 6689, "\u2581\u6ce8\u5c04": 6690, "\u2581\u53cd\u9988": 6691, "\u2581\u724c": 6692, "\u2581\u96f6\u552e": 6693, "\u72f1": 6694, "\u4e0d\u6e05": 6695, "73": 6696, "\u2581\u6b8b\u9177": 6697, "\u2581\u8fc7\u5206": 6698, "\u5238": 6699, "\u5bb9\u6613": 6700, "\u9f0e": 6701, "\u258149": 6702, "\u5b66\u5386": 6703, "\u2581\u8bb2\u7a76": 6704, "\u2581\u9ad8\u5927": 6705, "\u2581\u6e05\u6c34": 6706, "\u2581\u5207\u6362": 6707, "\u2581\u5173\u8282": 6708, "\u51cc": 6709, "\u2581\u5c0f\u767d": 6710, "\u2581\u5bf9\u7167": 6711, "\u57f9": 6712, "\u2581\u5927\u56db": 6713, "\u2581\u89e6\u6478": 6714, "\u897f\u533b": 6715, "\u2581\u5f39\u6027": 6716, "\u5c38": 6717, "\u2581\u80c6": 6718, "\u2581iOS": 6719, "\u2581sh": 6720, "\u25811981": 6721, "\u2581\u5355\u66f2": 6722, "\u2581\u86cb\u7cd5": 6723, "\u4e8b\u6545": 6724, "\u2581\u8425\u9020": 6725, "\u5f79": 6726, "\u2581\u556a": 6727, "\u2581\u6c89\u9ed8": 6728, "\u2581\u5355\u4e00": 6729, "\u8352": 6730, "\u2581\u798f\u5efa\u7701": 6731, "\u2581\u8fce": 6732, "\u2581\u6d41\u7545": 6733, "\u2581\u6781\u4e3a": 6734, "\u2581\u7537\u4e3b": 6735, "\u575d": 6736, "\u2581\u53d1\u8a00": 6737, "\u2581\u9897\u7c92": 6738, "\u2581\u859b": 6739, "\u2581\u7b97\u4e86": 6740, "\u2581\u901a\u4fd7": 6741, "\u2581\u58eb\u5175": 6742, "\u2581\u51cc\u6668": 6743, "\u75d5": 6744, "\u2581\u518d\u89c1": 6745, "\u2581\u9ad8\u4e00": 6746, "\u2581\u7956\u56fd": 6747, "\u2581\u6709\u8fc7": 6748, "\u2581\u7cbe\u786e": 6749, "\u2581\u9694\u58c1": 6750, "\u2581\u64b0\u5199": 6751, "\u2581\u671f\u8d27": 6752, "\u9877": 6753, "\u2581\u65e0\u610f": 6754, "\u2581\u680f\u76ee": 6755, "\u2581\u4f60\u597d": 6756, "\u2581\u7ec8\u7aef": 6757, "\u2581\u89c6\u4e3a": 6758, "\u2581\u5b81\u6ce2": 6759, "\u2581\u9192\u6765": 6760, "\u2581\u5206\u6ccc": 6761, "\u2581\u627f\u529e": 6762, "\u2581\u7b26\u53f7": 6763, "\u4ed6": 6764, "\u2581\u5173\u8054": 6765, "\u2581\u97e6": 6766, "\u5948": 6767, "\u2581\u8f6e": 6768, "co": 6769, "\u4f9b": 6770, "\u2581\u6559\u7814": 6771, "\u2581\u8f89\u714c": 6772, "\u76c8": 6773, "\u817b": 6774, "ot": 6775, "\u2581\u5962\u4f88": 6776, "\u2581La": 6777, "\u53c2": 6778, "\u2581\u5272": 6779, "\u9176": 6780, "\u2581220": 6781, "\u4ecb": 6782, "\u2581240": 6783, "\u8fa3": 6784, "\u2581\u7ade": 6785, "37": 6786, "\u2581sp": 6787, "\u2581\u64ad\u51fa": 6788, "\u8eab\u4e3a": 6789, "\u2581\u966a\u4f34": 6790, "\u2581\u9996\u6b4c": 6791, "\u5f04": 6792, "\u2581\u9762\u5305": 6793, "min": 6794, "\u3057": 6795, "\u2581\u5584\u4e8e": 6796, "\u6770\u4f26": 6797, "\u96fe": 6798, "\u2581\u4e1c\u839e": 6799, "\u2581\u6863": 6800, "\u2581\u5916\u754c": 6801, "\u2581\u536b": 6802, "\u2581\u5e73\u51e1": 6803, "\u2581\u5c1a\u672a": 6804, "42": 6805, "\u2581\u77e5\u8bc6\u4ea7\u6743": 6806, "46": 6807, "\u2581\u65b0\u5efa": 6808, "\u2581\u7236": 6809, "\u65e7": 6810, "\u2581\u4e8c\u4eba": 6811, "\u2581baidu": 6812, "\u2581\u9ec4\u6cb3": 6813, "\u25811979": 6814, "\u2581\u6fb3\u95e8": 6815, "\u8f9b": 6816, "\u2581\u5b98\u7f51": 6817, "\u2581\u53d1\u9001": 6818, "\u6696": 6819, "\u2581\u7231\u4e0a": 6820, "\u2581\u4e00\u5343": 6821, "\u5145": 6822, "97": 6823, "\u2581\u8d77\u70b9": 6824, "\u2581\u6d88\u706d": 6825, "\u8bc0": 6826, "\u2581De": 6827, "\u2581\u9e2d": 6828, "\u5144": 6829, "\u2581\u5e84": 6830, "\u2581\u4e00\u6839": 6831, "\u2581\u7acb\u573a": 6832, "\u2581\u5bb6\u5c45": 6833, "\u2581\u5f53\u4eca": 6834, "\u9ea6": 6835, "\u2581\u4e00\u987f": 6836, "\u5893": 6837, "\u2581\u591a\u591a": 6838, "\u2581\u8fc7\u6ee4": 6839, "\u2581\u4e50\u5668": 6840, "63": 6841, "\u6cf5": 6842, "\u2581\u996d\u5e97": 6843, "\u72b6\u51b5": 6844, "\u2581\u6563\u6587": 6845, "\u2581\u62c5\u4fdd": 6846, "\u2581\u6295\u8bc9": 6847, "\u2581\u963f\u5c14": 6848, "\u2581\u8d81": 6849, "\u2581\u6cb3\u5317\u7701": 6850, "\u65e0\u7591": 6851, "\u2581\u660e\u5e74": 6852, "\u2581\u5206\u89e3": 6853, "\u2581\u704c\u6e89": 6854, "\u5f53\u4f5c": 6855, "\u5176\u5999": 6856, "\u756a": 6857, "\u2581\u7b2c\u5341\u56db": 6858, "\u2581\u8d3a": 6859, "\u2581\u65e9\u9910": 6860, "\u2581\u7ea2\u5305": 6861, "ass": 6862, "\u2581\u6025\u6027": 6863, "\u8bb0\u5f55": 6864, "\u2581\u5632\u7b11": 6865, "\u2581\u9881\u53d1": 6866, "\u2581\u4e0d\u5b9c": 6867, "\u2581\u9075\u5b88": 6868, "\u2581\u5e26\u52a8": 6869, "\u56fd\u4eba": 6870, "\u2581\u9171\u6cb9": 6871, "\u2581\u8270\u96be": 6872, "\u2581\u6587\u672c": 6873, "\u2581\u77ff": 6874, "\u2581\u62fc\u97f3": 6875, "\u2581\u7ed8\u5236": 6876, "\u2581\u793c\u4eea": 6877, "\u2581\u559c\u5267": 6878, "\u2581\u8001\u5927": 6879, "\u2581\u8fd9\u7c7b": 6880, "\u2581\u6052": 6881, "\u2581\u8ba8": 6882, "\u2581\u72ed": 6883, "\u2581\u53d7\u5bb3": 6884, "\u9e3f": 6885, "\u2581\u8f6c\u4f1a": 6886, "\u2581\u7238": 6887, "\u4ec0": 6888, "\u2581\u53d6\u51b3": 6889, "\u5bbd": 6890, "\u2581\u7f16\u53f7": 6891, "\u5ec9": 6892, "\u2581\u6c5f\u6e56": 6893, "\u3008": 6894, "\u5de5\u8d44": 6895, "\u2581\u753b\u753b": 6896, "\u2581\u6316\u6398": 6897, "end": 6898, "\u2581\u975e\u6cd5": 6899, "\u2581https": 6900, "\u2581li": 6901, "\u2581\u542f": 6902, "\u2581\u5938\u5f20": 6903, "\u52c9\u5f3a": 6904, "\u2581\u79d1\u76ee": 6905, "\u2581\u78b3": 6906, "\u258159": 6907, "\u2581\u62db\u5546": 6908, "\u2581\u9ad8\u4e8c": 6909, "\u2581\u672c\u571f": 6910, "\u2581\u57f9\u80b2": 6911, "\u7406\u8bba": 6912, "\u2581\u753b\u5bb6": 6913, "\u2581\u5e86": 6914, "\u2581\u4f53\u79ef": 6915, "\u2581GT": 6916, "\u2581\u6628": 6917, "\u2581\u5806": 6918, "\u2581\u4e07\u4e00": 6919, "\u2581\u8f6c\u53d1": 6920, "\u2581\u7cdf\u7cd5": 6921, "\u2581\u4fbf\u6377": 6922, "\u2581\u533b\u5e08": 6923, "\u524d\u4efb": 6924, "\u2581\u62a5\u7eb8": 6925, "\u2581\u4eac\u4e1c": 6926, "\u2581\u4e8c\u4ee3": 6927, "\u2581\u4e88\u4ee5": 6928, "\u5f71\u54cd": 6929, "\u73b2": 6930, "\u2581\u516c\u5f0f": 6931, "\u2581\u8dcc": 6932, "\u2581\u65b9\u9488": 6933, "\u94a0": 6934, "\u00e9": 6935, "\u4e0d\u53bb": 6936, "\u901f\u5ea6": 6937, "\u554a\u554a": 6938, "\u2581\u7cd6\u5c3f\u75c5": 6939, "\u2581\u8ba1\u5212\u751f\u80b2": 6940, "\u8877": 6941, "\u2581\u53e3\u8bed": 6942, "\u2581\u5907": 6943, "\u2581\u5750\u6807": 6944, "\u2581\u4e0d\u89c1": 6945, "\u2581\u5bc6\u5c01": 6946, "\u2581\u5ba2\u6237\u7aef": 6947, "\u2581\u51b7\u9759": 6948, "\u2581\u8fd9\u624d": 6949, "\u5e94\u7528": 6950, "\u2581\u5404\u6709": 6951, "\u2581\u5149\u660e": 6952, "\u2581\u6ee1\u6ee1": 6953, "\u65e6": 6954, "\u2581\u8d70\u8fc7": 6955, "\u4e13": 6956, "\u4fdd\u62a4": 6957, "\u2581\u6ca1\u89c1": 6958, "\u2581\u5927\u54e5": 6959, "\u62e8": 6960, "\u2581\u57fa\u7763\u6559": 6961, "\u2581\u4e0d\u53bb": 6962, "\u8be6": 6963, "\u2581\u6d4e\u5357": 6964, "\u54a8\u8be2": 6965, "\u256d": 6966, "39": 6967, "\u2581\u4e2d\u5c71": 6968, "\u2581\u63a5\u5f85": 6969, "\u2581\u9644\u4ef6": 6970, "\u2581\u4e0d\u53d8": 6971, "\u2581\u8fc7\u5f97": 6972, "na": 6973, "\u2581\u53bf\u59d4": 6974, "\u2581\u65e5\u8bb0": 6975, "\u2581\u7761\u7740": 6976, "\u2581\u9ad8\u6e29": 6977, "\u2581\u8d28\u4fdd": 6978, "\u2581\u8d44\u6df1": 6979, "\u2581\u8d22\u7ecf": 6980, "\u96c6\u56e2": 6981, "\u2581\u4ea7\u91cf": 6982, "\u2581\u5f00\u5b66": 6983, "\u2581\u6697\u604b": 6984, "\u2581\u30eb": 6985, "\u2581\u5e08\u5085": 6986, "\u2581\u4efb\u610f": 6987, "\u2581\u6811\u7acb": 6988, "\u5339": 6989, "\u2581\u6108": 6990, "\u5de6\u53f3": 6991, "\u552e": 6992, "\u2581\u7e41\u6b96": 6993, "\u2581\u6b22\u4e50": 6994, "\u62b1": 6995, "ri": 6996, "\u2581\u5ddd": 6997, "\u2581\u661f\u5ea7": 6998, "\u2581\u59da": 6999, "\u4ed4": 7000, "\u2581\u533b\u5b66\u9662": 7001, "ell": 7002, "\u2581\u7eba\u7ec7": 7003, "$": 7004, "op": 7005, "\u2581\u4e2d\u5b66\u751f": 7006, "\u2581\u8bda": 7007, "\u2581\u73a9\u610f": 7008, "\u2581\u4e07\u5428": 7009, "\u2581\u6446\u8131": 7010, "\u2581\u4e09\u5929": 7011, "\u2581\u529f\u592b": 7012, "\u6cf3": 7013, "\u2581\u51c0\u5316": 7014, "\u2581\u56fd\u5bb6\u961f": 7015, "\u7f50": 7016, "\u5141": 7017, "\u2581\u9ad8\u538b": 7018, "ut": 7019, "\u2581\u5b89\u5fbd\u7701": 7020, "\u718a": 7021, "\u2581\u4eab\u6709": 7022, "\u2581\u91d1\u989d": 7023, "\u2581\u5916\u8868": 7024, "\u2581\u5382\u5bb6": 7025, "\u2581\u9644\u5c5e": 7026, "\u2581\u5dee\u70b9": 7027, "\u2581\u4eea\u5f0f": 7028, "\u25811949": 7029, "\u2581\u534a\u5929": 7030, "\u2581\u7597": 7031, "\u2581Le": 7032, "\u2581\u51fa\u79df\u8f66": 7033, "\u258153": 7034, "\u2581\u4e00\u4e0b\u5b50": 7035, "\u2581XX": 7036, "\u2581\u7ed1": 7037, "\u8baf": 7038, "\u2581\u7b7e\u8ba2": 7039, "\u2581\u60c5\u4eba": 7040, "\u2581\u7a77\u4eba": 7041, "\u5f62\u8c61": 7042, "\u2581\u7ee9\u6548": 7043, "\u2581\u6cea": 7044, "\u2581\u95e8\u69db": 7045, "\u7f1d": 7046, "\u2581\u8d2a": 7047, "\u2581\u6db2\u4f53": 7048, "\u2581\u6697\u793a": 7049, "\u2581\u51e0\u5343": 7050, "\u2581\u534a\u591c": 7051, "\u2581\u4e3e\u4f8b": 7052, "\u2581\u8096": 7053, "\u7206": 7054, "\u2581\u6709\u52a9": 7055, "\u2581\u805a\u96c6": 7056, "\u2581\u5c0f\u4e8b": 7057, "GA": 7058, "\u2581\u9884\u671f": 7059, "\u857e": 7060, "\u4ed5": 7061, "\u2581App": 7062, "\u6807\u51c6\u5316": 7063, "\u2581\u52b3": 7064, "\u2581\u4e0b\u8f66": 7065, "\u2581\u4e09\u56db": 7066, "\u256e": 7067, "\u2581\u5211\u4e8b": 7068, "\u2581\u5eb7\u590d": 7069, "\u7f38": 7070, "\u2581\u4e94\u767e": 7071, "\u652f\u6301": 7072, "li": 7073, "\u2581\u56fd\u7c4d": 7074, "\u5986": 7075, "\u2581\u60ca\u559c": 7076, "\u258188": 7077, "\u2581\u63a7": 7078, "\u2581To": 7079, "\u7235": 7080, "\u2581\u8d44\u52a9": 7081, "\u4eba\u6c11": 7082, "\u8d56": 7083, "\u2581\u6307\u4ee4": 7084, "\u2581\u5f62\u52bf": 7085, "\u8ddd\u79bb": 7086, "\u2581\u8d35\u65cf": 7087, "\u2581u": 7088, "\u2581\u4e8b\u540e": 7089, "\u2581\u53cd\u601d": 7090, "\u916c": 7091, "\u2581\u5904\u7f5a": 7092, "\u2581\u5475": 7093, "\u2581\u6301\u6709": 7094, "\u2581\u9505": 7095, "\u2581\u79ef\u5206": 7096, "\u2581\u56f0\u60d1": 7097, "\u57fa\u7840": 7098, "\u7199": 7099, "\u2581\u6709\u79cd": 7100, "\u2581\u9065": 7101, "\u649e": 7102, "\u2581\u6e05\u7406": 7103, "82": 7104, "ul": 7105, "ss": 7106, "\u2581\u4ea4\u4e92": 7107, "\u2581\u5f53\u9009": 7108, "\u8dc3": 7109, "\u2581\u6cd5\u5236": 7110, "\u2581\u5ea7\u4f4d": 7111, "\u2581\u7528\u6cd5": 7112, "\u2581\u6b6a": 7113, "\u505c": 7114, "\u2581\u4f7f\u547d": 7115, "\u822c": 7116, "\u2581\u4e8b\u52a1": 7117, "\u2581\u955c": 7118, "\u2581\u5fd7\u613f": 7119, "\u2581\u8fbd": 7120, "\u2581\u7406\u667a": 7121, "\u2581\u4eba\u529b": 7122, "\u2581\u5ef6\u957f": 7123, "\u6e20": 7124, "\u2581\u67ef": 7125, "\u2581\u4e0d\u50cf": 7126, "\u258154": 7127, "\u9884": 7128, "22": 7129, "\u72ee": 7130, "\u9e70": 7131, "\u2581\u5e38\u8bc6": 7132, "\u2581\u5e27": 7133, "\u30b9": 7134, "\u2581\u7b7e\u7ea6": 7135, "\u503a": 7136, "\u2581\u7535\u673a": 7137, "\u8ba1\u5212": 7138, "\u2581\u4ee3\u8c22": 7139, "\u5baa": 7140, "\u2581\u7b79": 7141, "\u2581\u5199\u51fa": 7142, "\u2581\u5f15\u5165": 7143, "\u690d": 7144, "\u609f": 7145, "MA": 7146, "\u7597": 7147, "\u2581\u591a\u5143": 7148, "\u2581\u7acb\u9a6c": 7149, "\u2581\u5956\u5b66": 7150, "\u2581\u6d1b\u9633": 7151, "\u8d70\u8def": 7152, "\u810f": 7153, "ton": 7154, "\u2581\u4ed8": 7155, "\u2581\u8fd8\u539f": 7156, "\u2581\u6311\u9009": 7157, "\u2581\u8fd1\u671f": 7158, "\u2581\u94a2\u94c1": 7159, "\u8861": 7160, "\u2581\u5b66\u957f": 7161, "\u7535\u8111": 7162, "\u2581\u8bd7\u8bcd": 7163, "\u2581\u4e66\u4e2d": 7164, "\u2581\u5ef6\u7eed": 7165, "\u2581\u6307\u793a": 7166, "\u2581\u91cd\u5efa": 7167, "SE": 7168, "41": 7169, "\u2581\u5e03\u7f6e": 7170, "\u2581\u5728\u804c": 7171, "\u2581\u56fa": 7172, "\u2581\u6469\u6258\u8f66": 7173, "\u2581\u6c34\u51c6": 7174, "\u2581\u9aa8\u5e72": 7175, "\u627e": 7176, "\u2581128": 7177, "\u2581\u74f6": 7178, "\u2581\u7ec8\u8eab": 7179, "\u2581\u7ade\u6280": 7180, "\u5df7": 7181, "\u2581\u65d7\u8230": 7182, "\u2581\u6d47": 7183, "\u2581\u7ba1\u9053": 7184, "\u2581\u79d1\u5e7b": 7185, "\u7cbe\u795e": 7186, "\u9ad8\u65b0\u6280\u672f": 7187, "\u2581\u7279\u6548": 7188, "\u2581\u7ca4\u8bed": 7189, "\u2581\u5f00\u5934": 7190, "\u526f": 7191, "\u2581\u8c08\u8c08": 7192, "\u2581\u9707\u64bc": 7193, "\u2581\u62ab": 7194, "\u2581\u704c": 7195, "\u2581\u5e0c\u814a": 7196, "\u2581\u906e": 7197, "\u2581\u5e08\u751f": 7198, "\u2581\u91c7\u96c6": 7199, "\u2581\u5305\u5bb9": 7200, "\u2581\u767e\u59d3": 7201, "\u6735": 7202, "\u2581\u751f\u6b7b": 7203, "\u2581\u5165\u5b66": 7204, "\u2581\u7f34": 7205, "\u2581\u6a21\u5177": 7206, "\u611f\u8c22": 7207, "\u2581\u575a\u5f3a": 7208, "\u65af\u7279": 7209, "\u2581\u8c03\u7814": 7210, "\u5949": 7211, "\u7984": 7212, "\u540d\u79f0": 7213, "\u2193": 7214, "\u2581\u51cf\u8f7b": 7215, "\u2581con": 7216, "\u2581\u8d50": 7217, "\u25ce": 7218, "\u59d4\u4f1a": 7219, "\u2581Co": 7220, "\u2581\u51fa\u81ea": 7221, "\u2581\u8ddf\u8e2a": 7222, "\u53f9": 7223, "\u2581\u7897": 7224, "\u2581\u6709\u540d": 7225, "\u2581\u6fb3\u6d32": 7226, "\u2581\u6367": 7227, "\u2581978750": 7228, "\u67d0": 7229, "\u846c": 7230, "\u2581\u9760\u8fd1": 7231, "\u6f06": 7232, "IS": 7233, "\u5f53\u505a": 7234, "\u2581\u573a\u5730": 7235, "\u2581\u8230": 7236, "\u7eea": 7237, "\u2581\u6559\u4f1a": 7238, "\u8036": 7239, "\u25813.4": 7240, "\u2581\u90ae": 7241, "\u2581\u684c\u5b50": 7242, "\u2581\u4e39": 7243, "\u5bdf": 7244, "\u8f86": 7245, "\u2581\u745e\u58eb": 7246, "\u89e6": 7247, "\u2581\u7eed": 7248, "\u2581\u6491": 7249, "\u2581\u957f\u4e45": 7250, "\u2581\u5e73\u9759": 7251, "\u2581\u9a97\u5b50": 7252, "\u2581\u6211\u7528": 7253, "\u2581\u9a7e": 7254, "\u50b2": 7255, "\u6559\u5b66": 7256, "\u2581\u957f\u5b89": 7257, "\u2581\u4e0d\u660e": 7258, "\u258196": 7259, "\u5915": 7260, "\u90ca": 7261, "\u2581\u4e8c\u7ef4": 7262, "ard": 7263, "\u2581\u4f34\u968f": 7264, "\u2581\u5b57\u4f53": 7265, "\u2581\u5f00\u53d1\u533a": 7266, "\u25810.1": 7267, "\u2581\u732a\u8089": 7268, "\u2581\u5bc6\u5207": 7269, "\u680b": 7270, "\u2581\u5b54\u5b50": 7271, "\u2581\u505a\u6210": 7272, "\u2581170": 7273, "\u2581\u2032": 7274, "\u2581\u5deb": 7275, "\u2581\u5217\u8f66": 7276, "\u2581\u5f71\u50cf": 7277, "\u4e0d\u52a8": 7278, "\u8df3": 7279, "\u2581\u8282\u7701": 7280, "\u79d1\u6280\u8fdb\u6b65": 7281, "\u9677": 7282, "\u2581\u8bb8\u53ef\u8bc1": 7283, "\u745f": 7284, "\u308b": 7285, "\u5fbd": 7286, "\u2581\u61f5": 7287, "\u2581\u5206\u652f": 7288, "\u2581\u5185\u5728": 7289, "\u2581\u4e0a\u95e8": 7290, "\u2581\u59d4\u5c48": 7291, "\u2581\u53cc\u624b": 7292, "\u2581\u4e24\u53e5": 7293, "\u7f29": 7294, "\u55bb": 7295, "\u2581\u6c14\u8c61": 7296, "\u5dde\u5e02": 7297, "\u6089": 7298, "\u2581\u7167\u660e": 7299, "\u59dc": 7300, "\u2581\u7ea6\u675f": 7301, "\u4e00\u5929": 7302, "\u2581\u9152\u5427": 7303, "\u5206\u4e4b\u4e00": 7304, "\u2581\u5f18": 7305, "\u56f0\u96be": 7306, "\u2581\u571f\u8c46": 7307, "\u2581\u5185\u8499\u53e4": 7308, "\u84c4": 7309, "\u2581\u9ed8\u8ba4": 7310, "\u5764": 7311, "\u2581\u4e00\u4f1a\u513f": 7312, "\u25811200": 7313, "\u2581\u76ef": 7314, "\u2581\u8bd5\u5377": 7315, "\u2581\u4e00\u591c": 7316, "\u4e4b\u5185": 7317, "ty": 7318, "\u2581\u8bd5\u9898": 7319, "\u2581\u6fc0\u53d1": 7320, "\u2581\u5b9e\u8d28": 7321, "\u6784": 7322, "\u2581\u7f6e": 7323, "\u2581\u6e05\u534e\u5927\u5b66": 7324, "\u2581\u53ef\u884c": 7325, "\u4e07\u5143": 7326, "\u2581\u5339\u914d": 7327, "\u2581\u4e0d\u9508\u94a2": 7328, "\u65e5\u8d77": 7329, "\u2581\u5a36": 7330, "\u9a8c": 7331, "\u02cb": 7332, "\u2581\u5bff\u547d": 7333, "be": 7334, "\u2581\u540d\u724c": 7335, "\u2581\u5b66\u9738": 7336, "\u2581\u618b": 7337, "\u2581\u5c71\u533a": 7338, "\u68c9": 7339, "\u52fa": 7340, "\u2581\u56fd\u571f": 7341, "\u88c1": 7342, "\u2581\u534e\u4eba": 7343, "\u2581\u5360\u9886": 7344, "\u2581\u767b\u5f55": 7345, "\u5f66": 7346, "\u2581\u8ba1\u91cf": 7347, "\u2581\u4ec7": 7348, "\u2581\u5b55\u5987": 7349, "\u70ad": 7350, "\u2581\u989c": 7351, "\u2581\u4e00\u77ac\u95f4": 7352, "\u2581\u8111\u888b": 7353, "\u7518": 7354, "\u742a": 7355, "\u6db5": 7356, "\u2581\u8001\u5bb6": 7357, "\u2581\u5c04\u51fb": 7358, "\u2581\u5236\u6210": 7359, "\u2581\u9053\u5177": 7360, "\u2581\u5927\u95e8": 7361, "\u5e74\u7ea7": 7362, "\u62ff": 7363, "\u9524": 7364, "\u2581\u7802": 7365, "\u5f17": 7366, "\u7eb1": 7367, "\u2581\u7ec6\u817b": 7368, "\u754f": 7369, "CC": 7370, "\u2581\u4e2a\u522b": 7371, "\u2581\u624b\u5de5": 7372, "\u2581\u8bb2\u5e08": 7373, "74": 7374, "\u2581\u9b45\u65cf": 7375, "\u2581\u626d": 7376, "\u2581\u6237\u5916": 7377, "\u2581\u6fc0": 7378, "\u2581\u5c01\u9762": 7379, "\u3068": 7380, "\u2581\u767b\u9646": 7381, "\u2581\u5149\u5b66": 7382, "\u2581140": 7383, "\u2581\u5c01\u95ed": 7384, "\u2581\u6269\u5f20": 7385, "................": 7386, "\u2581\u575a\u51b3": 7387, "\u2581\u6d3b\u529b": 7388, "\u2581\u7fc5": 7389, "\u2581\u4f53\u529b": 7390, "\u50e7": 7391, "\u2581\u7269\u7406\u5b66": 7392, "\u25814.5": 7393, "\u2581\u5bb6\u5883": 7394, "\u2581\u62fc\u547d": 7395, "71": 7396, "\u96c0": 7397, "\u2581\u88c5\u903c": 7398, "\u2581\u88d9": 7399, "\u2581\u9ed1\u4eba": 7400, "\u2581\u6beb\u4e0d": 7401, "\u5a03": 7402, "30": 7403, "\u2581\u8282\u7ea6": 7404, "\u2581\u4f11": 7405, "\u961f\u4f0d": 7406, "\u2581\u6572": 7407, "\u258197": 7408, "\u594f": 7409, "\u2581\u79f0\u4e4b": 7410, "\u5f7b": 7411, "\u2581\u5f8c": 7412, "\u2581\u6279": 7413, "\u2581\u96c5\u601d": 7414, "\u25811958": 7415, "\u304b": 7416, "\u2581\u517d": 7417, "\u2581\u6c34\u5e93": 7418, "\u2581\u8fa3\u6912": 7419, "\u2581\u4fbf\u4e8e": 7420, "\u2581\u4fdd\u5b88": 7421, "\u7ecd": 7422, "\u2581\u4e2d\u539f": 7423, "\u25816.2": 7424, "\u7802": 7425, "\u2581\u8aaa": 7426, "\u2581\u7814\u7a76\u5458": 7427, "\u2581\u89c4": 7428, "\u2581\u8def\u7531": 7429, "\u2581\u7b2c\u5341\u4e94": 7430, "\u4e59": 7431, "\u306b": 7432, "\u2581\u67d3": 7433, "\u2581\u884c\u674e": 7434, "\u2581\u7a46": 7435, "\u25cb": 7436, "\u2581\u5564\u9152": 7437, "\u2581\u5360\u636e": 7438, "\u2581\u767e\u4e07": 7439, "\u2581\u7f8e\u5143": 7440, "\u2581\u8fd9\u4efd": 7441, "\u2581\u547d": 7442, "\u2581\u5bb6\u5c5e": 7443, "\u2581\u4e8c\u624b": 7444, "\u2581\u519c\u7530": 7445, "\u7c7b\u578b": 7446, "35": 7447, "\u2581\u4e50\u89c2": 7448, "\u2581DDR": 7449, "\u2581\u68d2": 7450, "\u916f": 7451, "\u2581\u6625\u5929": 7452, "\u2581\u526f\u4f1a": 7453, "\u2581\u4e0d\u723d": 7454, "\u2581\u751f\u6daf": 7455, "\u2581\u6f5c\u5728": 7456, "\u9521": 7457, "\u2581\u5632\u8bbd": 7458, "\u2581\u9634\u9633": 7459, "\u2581\u4e16\u754c\u676f": 7460, "\u2581\u8a79\u59c6\u65af": 7461, "\u7ed8": 7462, "\u2581\u62bd\u70df": 7463, "\u662d": 7464, "\u2581\u7cbe\u7075": 7465, "\u2581\u8d70\u4e0a": 7466, "\u9a91": 7467, "\u2581\u5171\u4ea7\u515a": 7468, "ity": 7469, "\u2581\u5947\u8ff9": 7470, "\u4e8f": 7471, "\u2581\u6cd5\u9662": 7472, "\u2581\u5ba1": 7473, "\u2581\u4fe1\u8a89": 7474, "\u2581\u706b\u7bad": 7475, "\u2581\u6cd5\u5b9a": 7476, "\u2581\u6cbe": 7477, "\u2581\u30ce": 7478, "\u2581\u51e0\u5341\u5e74": 7479, "\u2581\u5f88\u957f": 7480, "\u2581\u719f\u7ec3": 7481, "\u2581\u5e73\u677f": 7482, "sh": 7483, "\u3009": 7484, "\u2581\u9f3b\u5b50": 7485, "\u2581\u6da8": 7486, "\u8bf4\u51fa": 7487, "\u2581\u53d8\u6001": 7488, "\u2581\u547d\u9898": 7489, "\u6fc0": 7490, "\u2581\u4f20\u9001": 7491, "\u2581\u8ba1": 7492, "vi": 7493, "\u2581\u764c\u75c7": 7494, "\u9489": 7495, "\u9e2d": 7496, "ab": 7497, "\u2581\u4efb\u804c": 7498, "\u2581\u4e13\u680f": 7499, "\u51b3\u8d5b": 7500, "\u2581\u6447": 7501, "\u2581\u8bc9\u8bbc": 7502, "\u5fcc": 7503, "\u2581\u7434": 7504, "AS": 7505, "\u2581You": 7506, "\u2581\u82b1\u751f": 7507, "\u2581\u871c": 7508, "\u2581\u6392\u5217": 7509, "\u2581\u51e0\u7387": 7510, "\u5d16": 7511, "\u2581\u72b9\u8c6b": 7512, "\u91c7": 7513, "\u2581\u6db5\u76d6": 7514, "\u69fd": 7515, "\u5229\u4e9a": 7516, "\u2581\u4e09\u7ef4": 7517, "\u2581\u61d2\u5f97": 7518, "\u2581\u5b50\u5bab": 7519, "ant": 7520, "\u7262": 7521, "\u2581\u63d0\u540d": 7522, "\u2581\u7528\u836f": 7523, "\u2581\u7801": 7524, "\u2581\u5f00\u53e3": 7525, "\u7a7a\u95f4": 7526, "29": 7527, "\u2581\u603b\u7ecf\u7406": 7528, "\u543b": 7529, "\u5188": 7530, "\u2581low": 7531, "\u2581\u7eaa\u5f55\u7247": 7532, "\u5bb6\u4e2d": 7533, "ong": 7534, "ee": 7535, "\u2581\u8fdb\u800c": 7536, "\u2581\u6837\u672c": 7537, "\u8231": 7538, "\u2581\u5b85": 7539, "\u6cd5\u89c4": 7540, "\u2581\u8bc4\u5ba1": 7541, "\u540f": 7542, "\u3066": 7543, "\u2581\u8861\u91cf": 7544, "\u2581LOL": 7545, "\u2581\u590d\u5370": 7546, "\u2581\u70eb": 7547, "\u2581\u7239": 7548, "ice": 7549, "\u2581\u76d1\u5bdf": 7550, "\u57f9\u8bad": 7551, "\u2581\u7d27\u5bc6": 7552, "\u2581\u8fc7\u591a": 7553, "\u2581\u6563\u70ed": 7554, "\u53d8\u66f4": 7555, "\u2581\u5145\u8db3": 7556, "\u8471": 7557, "\u2581\u89c4\u7ae0": 7558, "\u2581\u51ac\u5b63": 7559, "\u629b\u5f03": 7560, "\u2581\u540d\u4e3a": 7561, "\u2581\u64cd": 7562, "\u2581\u6c34\u7a3b": 7563, "\u258168": 7564, "\u2581\u5199\u5b57": 7565, "\u2581\u4e00\u7b14": 7566, "\u2581\u540c\u7c7b": 7567, "\u8d44\u91d1": 7568, "\u2581\u6b65\u884c": 7569, "\u2581\u6447\u6eda": 7570, "\u2581\u6307\u8d23": 7571, "\u2581\u7d27\u6025": 7572, "\u2581\u5f3a\u5978": 7573, "\u2581\u6297\u65e5": 7574, "\u2581\u5c40\u957f": 7575, "\u8d3c": 7576, "\u2581\u7956": 7577, "\u690d\u7269": 7578, "\u2581\u4ee5\u5f80": 7579, "\u2581\u5145\u5b9e": 7580, "\u2581ex": 7581, "\u2581\u6c14\u606f": 7582, "\u2581\u7aef\u53e3": 7583, "\u2190": 7584, "\u2581\u9075\u5faa": 7585, "\u2581\u73af\u5883\u4fdd\u62a4": 7586, "\u2581\u540c\u60c5": 7587, "87": 7588, "\u2581\u4e70\u5356": 7589, "\u2581\u30a4": 7590, "\u8c79": 7591, "\u2581Mac": 7592, "\u2581left": 7593, "\u2581\u5723\u8bde": 7594, "\u2581\u849c": 7595, "\u2581\u5d1b": 7596, "\u2581\u5927\u90fd": 7597, "\u2581\u643a\u5e26": 7598, "\u996e": 7599, "\u2581\u673a\u8eab": 7600, "\u8d2b": 7601, "ES": 7602, "\u9644": 7603, "\u2581\u4e0a\u4f20": 7604, "\u2581\u5907\u6ce8": 7605, "95": 7606, "\u2581\u83dc\u5355": 7607, "\u8d37": 7608, "\u2581\u6d41\u6d6a": 7609, "\u2581\u7b80\u6d01": 7610, "\u2581\u8f6c\u8f7d": 7611, "\u2581\u51e4": 7612, "\u83ca": 7613, "\u2581\u6770\u51fa": 7614, "\u2581\u4e24\u6761": 7615, "\u2581Java": 7616, "\u2581\u90bb\u5c45": 7617, "800": 7618, "\u2581\u7ea6\u7ff0": 7619, "\u2581\u738b\u5b50": 7620, "ti": 7621, "\u2581\u4e2d\u5171\u515a": 7622, "\u2581\u8003\u9a8c": 7623, "\u9ad3": 7624, "\u2581\u9499": 7625, "\u2581\u54e5": 7626, "\u2581\u7b2c\u4e00\u767e": 7627, "\u2581\u592a\u8fc7": 7628, "\u5f26": 7629, "\u2581\u73b0\u4e3a": 7630, "\u2581\u6c9f": 7631, "\u2581\u53f7\u7ebf": 7632, "\u2581\u826f\u5fc3": 7633, "\u3127": 7634, "ER": 7635, "\u2581\u5730\u6b65": 7636, "\u2581\u4e8c\u6218": 7637, "\u2581\u6218\u5f79": 7638, "\u2581\u60c5\u62a5": 7639, "\u2581\u81ed": 7640, "\u2581\u5927\u4e8b": 7641, "47": 7642, "\u2581\u6405\u62cc": 7643, "\u2581\u6e29\u5dde": 7644, "\u5927\u90e8\u5206": 7645, "\u2581\u4e09\u7ea7": 7646, "da": 7647, "\u2581\u5230\u4f4d": 7648, "\u2581\u7a7f\u8863": 7649, "\u2581\u4fc4": 7650, "\u2581\u5bc6\u5ea6": 7651, "\u2581\u5c11\u91cf": 7652, "\u2581\u9a8c\u6536": 7653, "\u94a6": 7654, "\u4e0d\u53ca": 7655, "\u2581\u786c\u5316": 7656, "\u2581\u5835": 7657, "\u2581\u5c01\u5efa": 7658, "\u2581\u4e5d\u7ae0": 7659, "\u2581\u5b5d": 7660, "\u907f": 7661, "\u6709\u9650\u8d23\u4efb": 7662, "\u2581\u975e\u8981": 7663, "\u2581\u76d7\u7248": 7664, "ear": 7665, "\u2581\u9ad8\u79d1\u6280": 7666, "\u2581\u7cbe\u9009": 7667, "\u2581\u9644\u52a0": 7668, "\u258172": 7669, "\u5ac1": 7670, "\u2581\u5148\u950b": 7671, "\u2581\u6f14\u53d8": 7672, "\u52ab": 7673, "\u2581\u6c11\u8425": 7674, "\u2581\u5e02\u6c11": 7675, "\u2581\u597d\u4e8b": 7676, "CH": 7677, "\u57f9\u517b": 7678, "\u2581\u5c41\u80a1": 7679, "\u2581\u6606\u660e": 7680, "\u2581\u624b\u7eed": 7681, "\u6216": 7682, "\u2581\u538b\u6291": 7683, "\u2581\u5fc5\u5907": 7684, "\u2581\u604b\u4eba": 7685, "\u2581\u5ef6": 7686, "\u2581\u7b28": 7687, "\u2581can": 7688, "\u2581\u8bb2\u8bdd": 7689, "km": 7690, "\u2581\u6f0f": 7691, "\u5916\u79d1": 7692, "\u4e4f": 7693, "\u4ee3\u8868\u5927\u4f1a": 7694, "\u9187": 7695, "\u584c": 7696, "\u2581\u51fa\u8840": 7697, "\u2581\u5750\u843d": 7698, "\u2581\u71ac\u591c": 7699, "\u2581\u5d07\u62dc": 7700, "\u2581\u51fa\u5e2d": 7701, "\u2581\u524d\u9014": 7702, "\u2581\u516c\u6b63": 7703, "\u2581\u80ce": 7704, "\u2581\u635e": 7705, "\u2581\u793c\u8c8c": 7706, "\u5320": 7707, "\u2581answer": 7708, "\u2581\u6cbb\u6108": 7709, "\u4e0d\u5f00": 7710, "\u2581\u9c81\u8fc5": 7711, "\u5c1d": 7712, "\u2581\u9009\u9879": 7713, "\u2581\u592e\u89c6": 7714, "\u2581\u684c\u9762": 7715, "ru": 7716, "ide": 7717, "\u2581\u4f17\u4eba": 7718, "\u2581\u5a5a\u7eb1": 7719, "\u2581\u8349\u539f": 7720, "\u62a5\u544a": 7721, "\u5937": 7722, "\u5a49": 7723, "\u8a89\u4e3a": 7724, "\u2581\u5931\u7720": 7725, "\u2581\u4ea4\u53c9": 7726, "98": 7727, "\u258178": 7728, "\u2581\u9ad8\u6863": 7729, "\u2581\u54cd": 7730, "\u2581\u7535\u89c6\u673a": 7731, "\u2581\u6f5c\u529b": 7732, "\u2581\u738b\u671d": 7733, "\u2581\u6c38\u4e45": 7734, "\u2581\u5168\u5bb6": 7735, "\u25815.3": 7736, "\u2581\u7701\u5185": 7737, "\u2581\u6d53\u5ea6": 7738, "\u2581\u6279\u53d1": 7739, "\u5ae9": 7740, "\u2581\u5411\u524d": 7741, "\u4e0d\u7b97": 7742, "\u67d4": 7743, "\u63f4": 7744, "\u2581\u4f9b\u7535": 7745, "\u4e32": 7746, "\u2581\u7537\u5b69\u5b50": 7747, "\u2581\u76ee\u5149": 7748, "\u2581\u7ca5": 7749, "\u5236\u54c1": 7750, "old": 7751, "94": 7752, "\u2581\u540e\u53f0": 7753, "\u2581\u501f\u52a9": 7754, "\u2581not": 7755, "\u9700": 7756, "\u65e5\u519b": 7757, "\u2581\u62d2": 7758, "\u2581Ma": 7759, "\u2581\u8d54": 7760, "\u2581\u98ce\u4e91": 7761, "\u90e1": 7762, "\u2581background": 7763, "\u2581\u4e95": 7764, "ian": 7765, "\u2581\u63ed": 7766, "\u2581\u6218\u80dc": 7767, "\u2581\u592a\u5b50": 7768, "\u3015": 7769, "\u2581\u5217\u8868": 7770, "\u2581\u9ad8\u8fbe": 7771, "\u2581\u4e2d\u7ea7": 7772, "\u2581\u800d": 7773, "\u2581\u820c": 7774, "\u2581\u671f\u9650": 7775, "\u2581\u5dc5\u5cf0": 7776, "\u795e\u7ecf": 7777, "\u2581\u8def\u5f84": 7778, "\u2581\u4ece\u5c0f\u5230": 7779, "\u8896": 7780, "\u6da9": 7781, "\u2581\u5367\u69fd": 7782, "\u2581\u9ed1\u767d": 7783, "\u2581Ch": 7784, "\u2581\u5206\u6563": 7785, "\u8d4f": 7786, "\u2581\u7d27": 7787, "\u2581\u6e29\u6cc9": 7788, "\u3014": 7789, "\u2581kg": 7790, "\u2581\u7279\u6709": 7791, "\u5076": 7792, "\u2581\u80a1\u6743": 7793, "\u2581\u519b\u4eba": 7794, "67": 7795, "\u2581\u5149\u9a71": 7796, "\u2581\u6eb6\u6db2": 7797, "\u2581\u4e00\u80a1": 7798, "\u80fa": 7799, "\u2581\u4e3b\u5e72": 7800, "\u2581\u65e5\u76ca": 7801, "\u2581\u5f3a\u52bf": 7802, "\u2581\u56de\u6536": 7803, "\u2581\u96c6\u5408": 7804, "\u2581co": 7805, "\u6850": 7806, "\u2581\u6b3a\u9a97": 7807, "\u6570\u636e": 7808, "ill": 7809, "\u2581\u7535\u5668": 7810, "61": 7811, "\u2581\u9ad8\u6f6e": 7812, "\u2581\u54c7": 7813, "\u6028": 7814, "\u2581\u96be\u5f97": 7815, "\u7476": 7816, "\u2581\u66f4\u540d": 7817, "\u2581\u79df\u8d41": 7818, "\u2581\u9ad8\u4e2d\u751f": 7819, "\u2581\u5367": 7820, "\u2581\u51b7\u5374": 7821, "\u2581\u5e74\u521d": 7822, "\u4e27": 7823, "\u9ed8": 7824, "\u8fc7\u7a0b": 7825, "\u2581\u53d1\u7968": 7826, "\u2581\u53cd\u6297": 7827, "\u2581\u90e8\u843d": 7828, "\u2581\u723d": 7829, "\u6302": 7830, "\u2581\u4eb2\u5bc6": 7831, "\u2581\u5782": 7832, "ve": 7833, "\u8d8b\u52bf": 7834, "\u66ff": 7835, "\u2581\u63d0\u8d77": 7836, "\u2581\u5185\u5916": 7837, "\u2581\u751f\u7269\u5b66": 7838, "\u2581\u5b88\u62a4": 7839, "\u2581\u5ba1\u5224": 7840, "\u2581\u5411\u5f80": 7841, "\u0300": 7842, "53": 7843, "\u2581\u4ea7\u54c1\u8d28\u91cf": 7844, "\u5976\u5976": 7845, "\u2581\u6d88\u6bd2": 7846, "\u2581\u7a81\u53d1": 7847, "\u2581\u5165\u53e3": 7848, "\u2581\u8d77\u6b65": 7849, "\u2581\u5bfc\u5411": 7850, "\u5f15\u64ce": 7851, "\u2581do": 7852, "\u2581\u53c2\u7167": 7853, "AT": 7854, "\u5f0a": 7855, "\u5341\u5c81": 7856, "\u5973\u5b69": 7857, "\u2581\u7ecf\u6d4e\u6797": 7858, "\u54df": 7859, "\u2581\u505c\u7559": 7860, "\u2581\u56e2\u8d2d": 7861, "ix": 7862, "\u2581\u5bf9\u79f0": 7863, "\u55b5": 7864, "\u2581\u8f6c\u5411": 7865, "\u7855": 7866, "ist": 7867, "\u2581\u592a\u5927": 7868, "\u2581\u5904\u5904": 7869, "\u76d1": 7870, "\u2581\u62a4\u58eb": 7871, "\u9769": 7872, "\u2581\u8be2\u95ee": 7873, "\u2581\u4fee\u6b63": 7874, "\u809a": 7875, "\u8d44\u683c": 7876, "\u2581\u7814\u8ba8": 7877, "\u2581\u5730\u4ea7": 7878, "\u2581\u53d1\u7535": 7879, "\u2581\u53cb\u60c5": 7880, "BA": 7881, "AN": 7882, "\u54aa": 7883, "\u963f": 7884, "\u2581\u73cd\u8d35": 7885, "\u2581\u53e4\u4eba": 7886, "\u2581\u53d1\u9175": 7887, "\u2581\u5de5\u79d1": 7888, "\u5229\u7528": 7889, "300": 7890, "\u514b\u65af": 7891, "\u2581\u9c9c\u660e": 7892, "\u7554": 7893, "\u88d9": 7894, "\u2581\u7b2c\u5341\u516d": 7895, "\u80a9": 7896, "\u2581\u5927\u5956": 7897, "\u594b": 7898, "\u2581\u79c9\u627f": 7899, "\u2581\u9ad8\u4f4e": 7900, "\u2581\u5931\u604b": 7901, "\u2581\u8ba2\u5355": 7902, "\u2581\u7231\u5fc3": 7903, "\u2581TM": 7904, "\u2581zh": 7905, "\u2581\u9738": 7906, "\u2581\u4e66\u5199": 7907, "\u5b66\u79d1": 7908, "\u8015": 7909, "\u2581\u4f4f\u5bbf": 7910, "\u2581\u4e09\u5206": 7911, "\u2581\u5927\u58f0": 7912, "\u9646": 7913, "\u2581\u9a71": 7914, "\u2581top": 7915, "\u2581\u53c2\u89c2": 7916, "\u2581\u5efa\u56fd": 7917, "\u2581\u751f\u6d3b\u8d39": 7918, "\u59ec": 7919, "net": 7920, "\u2581\u4f20\u67d3": 7921, "\u2581\u6237\u53e3": 7922, "\u2581Linux": 7923, "\u2581\u9e7f": 7924, "\u2581\u805a\u4f1a": 7925, "\u2581\u697c\u4e0b": 7926, "\u2581\u9493\u9c7c": 7927, "\u2581\u7efc\u827a": 7928, "\u2581\u5929\u5802": 7929, "\u61d2": 7930, "\u2581\u505a\u4eba": 7931, "\u2581\u7acb\u8db3": 7932, "\u2581\u6d89": 7933, "\u2581\u4e00\u5708": 7934, "la": 7935, "\u2581q": 7936, "\u2581\u5acc\u7591": 7937, "\u6c61": 7938, "\u7535\u8def": 7939, "\u2581\u8054\u5408\u56fd": 7940, "\u59d1": 7941, "ni": 7942, "\u4fb5\u72af": 7943, "\u5e72\u90e8": 7944, "\u2581\u6625\u8282": 7945, "\u4e00\u4f53\u5316": 7946, "\u2581--------": 7947, "\u2581\u524d\u8a00": 7948, "\u67f3": 7949, "\u4e0d\u901a": 7950, "\u2581HR": 7951, "\u2581\u5360\u6709": 7952, "\u9091": 7953, "\u2581\u6d6a": 7954, "\u2581\u4e00\u5c0f": 7955, "\u2581\u771f\u7406": 7956, "\u2581\u5949\u732e": 7957, "\u2581\u6c61": 7958, "\u2581\u94bb\u77f3": 7959, "\u7fe0": 7960, "\u575e": 7961, "\u2581\u65e0\u77e5": 7962, "\u2581\u519c\u4ea7\u54c1": 7963, "ha": 7964, "\u2581\u8bbd\u523a": 7965, "\u2581\u4e24\u5927": 7966, "\u8bfe\u7a0b": 7967, "\u2581\u4fee\u5efa": 7968, "\u2581\u89c2\u8d4f": 7969, "\u2581\u6b63\u5f53": 7970, "\u8377": 7971, "\u74f7": 7972, "\u2581\u4ea7\u7269": 7973, "\u2581\u8700": 7974, "\u2581\u9632\u6c34": 7975, "\u2581\u5c41": 7976, "\u556a": 7977, "\u2581\u60df": 7978, "\u2581\u660e\u4ee3": 7979, "\u2581\u914d\u97f3": 7980, "\u7ef3": 7981, "\u2581\u89c1\u89e3": 7982, "\u2581\u4eba\u5fc3": 7983, "\u2581\u91cd\u5e86\u5e02": 7984, "\u2581\u4e94\u6708": 7985, "\u5ba3": 7986, "\u2581\u4efb\u6559": 7987, "\u2581\u5165\u4fb5": 7988, "\u2581\u592a\u5e73": 7989, "\u9e64": 7990, "\u4ec7": 7991, "\u4ef7\u683c": 7992, "\u2581\u6f14\u7ece": 7993, "\u94a9": 7994, "\u2581\u5e99": 7995, "\u2581\u81ea\u6765\u6c34": 7996, "\u2581\u540d\u4e49": 7997, "\u2581\u6570\u503c": 7998, "\u6267": 7999, "\u5fcd": 8000, "\u74e3": 8001, "\u2581\u5fc3\u601d": 8002, "\u2581\u5468\u5e74": 8003, "\u6df7": 8004, "\u53a8": 8005, "\u2581\u5f1f\u5b50": 8006, "\u2581\u6570\u5341": 8007, "\u78b1": 8008, "\u9a7b": 8009, "\u2581\u8db3\u4ee5": 8010, "\u7cfb\u6570": 8011, "\u2581\u5730\u72f1": 8012, "\u2581\u88ab\u52a8": 8013, "\u2581\u573a\u9762": 8014, "\u2581\u8001\u5988": 8015, "bit": 8016, "\u2581\u8eab\u5fc3": 8017, "\u2581\u4f0f": 8018, "\u2581\u76f2\u76ee": 8019, "\u2581\u9ecf": 8020, "\u658c": 8021, "\u5f2f": 8022, "\u2581\u5907\u7528": 8023, "\u2581\u5085": 8024, "\u6478": 8025, "\u2581\u9655\u897f\u7701": 8026, "\u2581\u6328": 8027, "\u529b\u5b66": 8028, "\u2581\u519c\u4f5c": 8029, "ig": 8030, "\u2581\u6c34\u4e2d": 8031, "\u2581\u5907\u6848": 8032, "\u258162": 8033, "\u2581\u8bf4\u597d": 8034, "\u6b8a": 8035, "\u2581\u9a6c\u514b\u601d\u4e3b\u4e49": 8036, "\u2581\u7ecf\u7eaa": 8037, "\u2581\u56fd\u4f01": 8038, "PS": 8039, "\u2581\u957f\u57ce": 8040, "\u5824": 8041, "\u68cb": 8042, "\u2581\u5e7b": 8043, "\u2581\u6c34\u6676": 8044, "\u2581\u89e3\u9664": 8045, "\u2581\u6865\u6881": 8046, "\u2581\u4ee3\u8a00": 8047, "\u2581\u738b\u56fd": 8048, "\u2581\u679c\u65ad": 8049, "\u2581\u517b\u8001": 8050, "oo": 8051, "\u2581\u8c37\u6b4c": 8052, "\u2581\u597d\u4eba": 8053, "\u2581\u542c\u529b": 8054, "\u2581\u4e91\u5357\u7701": 8055, "\u2581\u5de7\u514b\u529b": 8056, "\u2581\u4e00\u624b": 8057, "\u2581\u7a00": 8058, "\u2581\u68cb": 8059, "\u2581your": 8060, "\u2581\u6700\u5f3a": 8061, "\u6170": 8062, "\u6c7d": 8063, "\u25816.1": 8064, "\u5974": 8065, "\u2581\u518d\u751f": 8066, "\u907f\u514d": 8067, "\u533a\u57df": 8068, "\u2581\u6247": 8069, "\u2581\u6233": 8070, "\u2581\u6d77\u4e0a": 8071, "\u2581\u53ec\u5524": 8072, "\u2581new": 8073, "\u25818.": 8074, "\u2581\u73b0\u5df2": 8075, "\u2581\u5148\u8bf4": 8076, "\u6d6e": 8077, "\u2581\u6e05\u9664": 8078, "\u6749": 8079, "\u2581\u7231\u4eba": 8080, "\u2581\u7d22\u5c3c": 8081, "\u2581\u89c1\u8fc7": 8082, "\u2581\u6536\u62fe": 8083, "\u2581\u4e03\u5e74": 8084, "\u5de2": 8085, "go": 8086, "\u2581\u997c": 8087, ".": 8088, "\u2581700": 8089, "de": 8090, "\u2581\u4f4f\u9662": 8091, "\u2581\u7ed3\u5c3e": 8092, "\u2581\u4e8b\u52a1\u6240": 8093, "\u755c": 8094, "\u2581width": 8095, "\u2581\u59d0\u59b9": 8096, "\u2581\u9003\u907f": 8097, "\u2581\u611f\u6fc0": 8098, "\u4f51": 8099, "\u2581\u6b64\u7c7b": 8100, "\u2581\u6b7b\u5211": 8101, "\u2581\u653f\u6743": 8102, "\u2581\u8d26": 8103, "\u2581lol": 8104, "pe": 8105, "\u25812.0": 8106, "\u5c09": 8107, "\u8bf6": 8108, "\u2581\u80e1\u841d\u535c": 8109, "\u2581win": 8110, "\u2581\u710a\u63a5": 8111, "\u8d4b": 8112, "\u2581\u7518\u8083": 8113, "\u2581\u4e0b\u5c5e": 8114, "\u8d3a": 8115, "\u2581\u65cb\u5f8b": 8116, "\u2581\u6148\u5584": 8117, "\u2581\u53d1\u578b": 8118, "\u2581\u63a8\u7406": 8119, "\u2581\u70ed\u70b9": 8120, "\u2581\u7f8e\u5b66": 8121, "\u624d\u80fd": 8122, "\u2581\u76f4\u5c5e": 8123, "\u2581\u5916\u5a46": 8124, "RO": 8125, "\u2581\u51e0\u70b9": 8126, "\u2581\u692d\u5706": 8127, "\u2581\u6500": 8128, "\u8679": 8129, "\u2581\u8bc4\u9009": 8130, "\u6df1\u5904": 8131, "Hz": 8132, "\u2581\u6e29\u548c": 8133, "\u4e4b\u5730": 8134, "0.0": 8135, "\u2581\u5927\u80c6": 8136, "\u2606": 8137, "\u2581\u8f93\u9001": 8138, "\u2581\u6eb6": 8139, "\u2581\u4f59\u4eba": 8140, "ure": 8141, "\u79df": 8142, "\u2581\u6c34\u9762": 8143, "\u8c1c": 8144, "\u258157": 8145, "\u68cd": 8146, "sa": 8147, "\u2581\u914d\u4ef6": 8148, "40": 8149, "\u2581\u71d5": 8150, "\u2581\u5170\u5dde": 8151, "\u2581\u9677": 8152, "\u25814.4": 8153, "\u2581\u5ba2\u623f": 8154, "\u539f\u56e0": 8155, "\u2581\u4e27\u5931": 8156, "\u2581\u5341\u591a": 8157, "\u30e9": 8158, "\u5371\u673a": 8159, "\u2581\u731c\u6d4b": 8160, "\u2581\u88f8": 8161, "\u2581\u81ea\u79f0": 8162, "\u2581\u5bfc\u5f39": 8163, "\u2581\u76ca": 8164, "\u2581\u5de5\u4f1a": 8165, "\u2581\u540c\u684c": 8166, "\u5b66\u540d": 8167, "\u2581\u900f\u9732": 8168, "\u2581\u52e4\u594b": 8169, "\u2581\u5ba2\u8fd0": 8170, "\u8f85": 8171, "\u2581HD": 8172, "\u2581\u5f00\u521b": 8173, "\u2581\u964d\u6c34": 8174, "\u2581\u4e8f": 8175, "\u2581\u7eb3\u7c73": 8176, "\u2581\u76d7": 8177, "\u2581ta": 8178, "\u2581\u62a5\u8003": 8179, "\u8a89": 8180, "\u2581\u53ea\u60f3": 8181, "\u2581\u4e70\u4e2a": 8182, "\u2581\u5bb6\u7528": 8183, "\u582a": 8184, "\u2581\u5706\u684c": 8185, "ow": 8186, "AD": 8187, "CM": 8188, "\u2581Con": 8189, "\u2581\u52a8\u673a": 8190, "\u2581\u8f6c\u57fa\u56e0": 8191, "\u2581\u7597\u6548": 8192, "\u5a74": 8193, "\u2581\u51b3": 8194, "\u2581\u5e95\u5c42": 8195, "\u2581----------": 8196, "\u2581\u9ad8\u6e05": 8197, "\u25812017": 8198, "\u2581\u5e95\u7ebf": 8199, "\u2581\u7279\u79cd": 8200, "\u2581Al": 8201, "\u2581\u8c2d": 8202, "\u7384": 8203, "\u2581\u76f8\u58f0": 8204, "\u2581Se": 8205, "\u2581\u4e1a\u5185": 8206, "\u2581\u9ad8\u5cf0": 8207, "\u2581\u6b63\u7248": 8208, "\u65af\u5766": 8209, "\u4e0d\u65f6": 8210, "\u2581\u91d1\u724c": 8211, "\u8d9f": 8212, "\u2581\u6b66\u672f": 8213, "--------------": 8214, "\u2581\u94f8": 8215, "\u2581\u4f5c\u7269": 8216, "\u575a": 8217, "\u2581\u53f6\u7247": 8218, "69": 8219, "\u8702": 8220, "\u969c": 8221, "\u2581\u8d2b\u7a77": 8222, "\u2581\u5546\u4eba": 8223, "\u2581\u6ce2\u52a8": 8224, "\u2581\u90e8\u4ef6": 8225, "\u51fd": 8226, "\u2581\u987f": 8227, "\u2581\u6e17\u900f": 8228, "\u2581\u77ff\u7269": 8229, "\u4eab": 8230, "\u2581\u8fd1\u51e0\u5e74": 8231, "\u60e8": 8232, "\u2581as": 8233, "\u91d1\u5c5e": 8234, "\u2581\u5747\u8861": 8235, "\u2581\u5411\u4e0a": 8236, "\u2581\u516b\u5366": 8237, "\u2581\u5047\u671f": 8238, "\u3046": 8239, "\u2581\u516c\u5173": 8240, "\u4ea6": 8241, "\u5de5\u827a": 8242, "\u5203": 8243, "\u2581\u7ec8\u6b62": 8244, "\u2581\u4e00\u4e8b": 8245, "\u2581\u5973\u58eb": 8246, "\u665a\u4e0a": 8247, "\u2581\u8106\u5f31": 8248, "\u2581\u6b66\u88c5": 8249, "\u2581\u96f6\u4ef6": 8250, "\u00b1": 8251, "\u2581\u54c4": 8252, "\u4f50": 8253, "\u2581\u732e": 8254, "\u2581\u62ac": 8255, "ME": 8256, "\u2581\u6d78": 8257, "\u2581\u6655": 8258, "\u4e1a\u52a1": 8259, "\u2581\u6c57": 8260, "\u7076": 8261, "\u5356\u5bb6": 8262, "\u5446": 8263, "\u2581\u8fd9\u6761": 8264, "way": 8265, "\u2581\u75c5\u60c5": 8266, "\u2581\u5728\u6821": 8267, "\u5efa\u7b51": 8268, "\u2581\u8d6b": 8269, "\u2581\u89c1\u8bc6": 8270, "\u7231\u597d": 8271, "\u2581\u6dd8": 8272, "\u2581\u5c3c\u739b": 8273, "\u2581love": 8274, "day": 8275, "\u2581\u9ad8\u8840\u538b": 8276, "\u5224": 8277, "\u2581\u591a\u5927": 8278, "\u2581\u5206\u7ba1": 8279, "\u2581\u6c42\u52a9": 8280, "\u2581\u65b0\u5174": 8281, "\u6c2e": 8282, "\u2581\u5965\u8fd0": 8283, "\u2581\u54cd\u5e94": 8284, "0000": 8285, "\u2581\u6770": 8286, "\u2581\u4e3b\u573a": 8287, ".09": 8288, "\u2581\u50a8": 8289, "338": 8290, "\u2581\u5fcc": 8291, "\u2581\u5357\u660c": 8292, "\u7b3c": 8293, "\u7528\u6237": 8294, "\u6d88\u606f": 8295, "\u02ca": 8296, "\u5154": 8297, "\u2581\u6cbf\u6d77": 8298, "no": 8299, "AP": 8300, "\u2581\u62e5\u62b1": 8301, "\u52c9": 8302, "\u2581\u7f8e\u5473": 8303, "\u2581\u6548\u76ca": 8304, "\u2581\u5916\u79d1": 8305, "\u2581\u706f\u5149": 8306, "\u2581Web": 8307, "\u258176": 8308, "\u2581\u50a8\u5b58": 8309, "\u53d1\u6325": 8310, "\u2581UI": 8311, "\u2581\u56fd\u9632": 8312, "\u2581\u516c\u544a": 8313, "\u2581\u5927\u725b": 8314, "\u2581\u8bdd\u8bed": 8315, "\u2581\u7545\u9500": 8316, "\u2581\u771f\u4eba": 8317, "\u2581\u4f55\u5fc5": 8318, "\u2581\u7d20\u6750": 8319, "\u2581\u4e89\u8bba": 8320, "ud": 8321, "\u2581\u5bbd\u5e26": 8322, "\u4e03\u516b": 8323, "\u2581\u8239\u8236": 8324, "\u918b": 8325, "\u2581\u4f5c\u8bcd": 8326, "\u5806": 8327, "\u2581or": 8328, "\u8574": 8329, "\u2581\u590d\u8bfb": 8330, "\u2581\u6bc1\u706d": 8331, "\u8fdb\u58eb": 8332, "\u2581\u6469\u64e6": 8333, "\u969c\u788d": 8334, "\u2581AC": 8335, "\u5a92": 8336, "\u7535\u7ad9": 8337, "\u2581\u5bb9\u79ef": 8338, "\u2581\u5e7f\u5dde\u5e02": 8339, "\u2581\u52a1": 8340, "\u8d29": 8341, "\u2581\u51b3\u8d5b": 8342, "\u592a\u592a": 8343, "\u2581\u6781\u5ea6": 8344, "\u2581\u745e\u5178": 8345, "\u2581\u4e00\u671f": 8346, "\u2581\u9636": 8347, "\u2581\u7f16\u7801": 8348, "\u2581\u6ce1\u6cab": 8349, "\u2581\u76f4\u7ebf": 8350, "\u4e43": 8351, "\u2581\u5ab3\u5987": 8352, "\u2581\u60e9\u7f5a": 8353, "\u2581\u8b66\u65b9": 8354, "\u2581ul": 8355, "\u2581\u51e0\u4f55": 8356, "\u2581He": 8357, "\u2581\u6392\u961f": 8358, "\u2581\u4e2d\u8003": 8359, "\u2581\u4ea7\u6743": 8360, "\u6210\u529f": 8361, "\u8fd8": 8362, "\u2581\u5149\u7ebf": 8363, "\u2581\u4ed8\u6b3e": 8364, "bi": 8365, "\u2581\u51fa\u751f\u5730": 8366, "\u2581\u770b\u4e0d\u8d77": 8367, "\u258186": 8368, "\u2581\u9694\u79bb": 8369, "\u82af": 8370, "\u2581text": 8371, "\u5bb6\u4f19": 8372, "\u2581\u5916\u6c47": 8373, "\u2581\u9876\u5c16": 8374, "\u519c\u4e1a": 8375, "\u2581\u7d2f\u8ba1": 8376, "\u2581\u51b3\u5fc3": 8377, "\u2581\u72ee\u5b50": 8378, "\u2581\u517c\u5bb9": 8379, "\u2581\u4e1a\u4e3b": 8380, "\u2581\u7f51\u6e38": 8381, "ary": 8382, "\u5b66\u751f": 8383, "\u2581\u8ba2": 8384, "\u8fc5": 8385, "\u25817.2": 8386, "\u2581\u88e4\u5b50": 8387, "\u2581\u7e41\u8363": 8388, "\u603b\u5c40": 8389, "\u2581\u592b\u4eba": 8390, "\u5360": 8391, "\u2581\u6c83": 8392, "\u2581\u673a\u9047": 8393, "ji": 8394, "\u2581\u7ae5\u8bdd": 8395, "\u2581\u7b2c\u5341\u4e03": 8396, "\u2581\u989d\u5916": 8397, "\u79d1\u6280": 8398, "\u2581\u5baa\u6cd5": 8399, "\u2581\u7b5b\u9009": 8400, "\u2581\u845b": 8401, "\u2581\u6c34\u8d28": 8402, "\u2581\u9707\u60ca": 8403, "\u6027\u80fd": 8404, "\u2581\u62a5\u520a": 8405, "\u2581\u8f6c\u8ba9": 8406, "ms": 8407, "\u2581\u5206\u6210": 8408, "\u673a\u68b0": 8409, "\u2581\u517c\u4efb": 8410, "\u8d2f": 8411, "su": 8412, "\u2581\u5e94\u6709": 8413, "\u6a2a": 8414, "\u2581\u62ff\u6765": 8415, "\u804c\u8d23": 8416, "\u8d21\u732e": 8417, "\u2581z": 8418, "\u62c5": 8419, "\u2581\u30c8": 8420, "\u2581\u6469": 8421, "\u2581xx": 8422, "\u2581\u524d\u6bb5": 8423, "\u5fd8": 8424, "\u2581\u76d1": 8425, "\u2581\u6392\u65a5": 8426, "\u2581\u7164\u70ad": 8427, "\u2581\u5021\u5bfc": 8428, "\u2581\u5168\u6c11": 8429, "\u2581\u7cae": 8430, ".07": 8431, "\u2581\u538c\u6076": 8432, "\u2581\u5b66\u751f\u4f1a": 8433, "\u2581\u8be6\u60c5": 8434, "\u2581\u6708\u4eae": 8435, "\u2581\u6237\u578b": 8436, "\u2581\u592a\u9ad8": 8437, "\u2581\u611f\u6168": 8438, "\u2581\u52a3": 8439, "\u2581\u6d77\u5173": 8440, "\u2581\u5fc3\u60f3": 8441, "\u8bb6": 8442, "\u2581\u52e4": 8443, "\u56e0\u7d20": 8444, "\u5e15": 8445, "\u2581\u8fdb\u5c55": 8446, "\u2581\u66a7\u6627": 8447, "\u2581\u65e9\u70b9": 8448, "\u75be": 8449, "\u2581\u8bf1\u60d1": 8450, "31": 8451, "\u2581\u5341\u51e0\u5e74": 8452, "\u2581\u95ea\u5149": 8453, "\u2581\u7ea0\u6b63": 8454, "\u25810.2": 8455, "\u72d0": 8456, "\u6247": 8457, "\u2581\u7cbe\u7f8e": 8458, "\u2581\u53f8\u4ee4": 8459, "\u2581\u88c2": 8460, "\u541f": 8461, "\u2581\u597d\u574f": 8462, "\u946b": 8463, "\u2581\u8001\u5b9e": 8464, "\u2581\u51fa\u552e": 8465, "\u98ce\u683c": 8466, "\u2581\u5a07": 8467, "tr": 8468, "\u2581\u9996\u5e2d": 8469, "\u258163": 8470, "\u2581\u6c42\u804c": 8471, "\u6760": 8472, "\u2581\u9886\u8896": 8473, "\u2581\u4eba\u8eab": 8474, "\u2581\u5e78": 8475, "\u2581\u6296": 8476, "\u2581\u6392\u6c34": 8477, "\u2581\u5927\u961f": 8478, "\u2581\u7ebd": 8479, "\u2581\u4e0d\u9002": 8480, "\u2581\u4e3b\u677f": 8481, "\u2581\u9636\u7ea7": 8482, "\u2581\u526f\u5c40": 8483, "\u2581\u8282\u65e5": 8484, "51": 8485, "\u673a\u5236": 8486, "\u2581\u5e94\u5c4a": 8487, "\u68a8": 8488, "\u2581\u70b9\u8d5e": 8489, "\u258193": 8490, "\u2581\u4e16\u4e0a": 8491, "\u2581\u9886\u5bfc\u4eba": 8492, "\u2581\u819c": 8493, "\u258110000": 8494, "\u4e8b\u4ef6": 8495, "\u2581\u5fcd\u53d7": 8496, "\u25811956": 8497, "\u624e\u5b9e": 8498, "\u95f2": 8499, "\u2581\u6b7b\u53bb": 8500, "\u2581\u65b0\u589e": 8501, "\u2581\u590d\u65e6": 8502, "\u751f\u610f": 8503, "\u2581\u76f4\u89c2": 8504, "\u2581\u62bd\u8c61": 8505, "\u2581\u4f8d": 8506, "\u2581\u9762\u90e8": 8507, "\u2581\u4eba\u54c1": 8508, "ps": 8509, "\u2581-----": 8510, "\u2581\u5408\u80a5": 8511, "\u2581And": 8512, "\u5bb6\u5ead": 8513, "\u2581\u83cc": 8514, "\u2581\u9019": 8515, "\u2581\u6362\u4e2a": 8516, "\u2581\u90ae\u653f": 8517, "\u2581\u4e27": 8518, "\u2581\u51b0\u7bb1": 8519, "\u7a8d": 8520, "SS": 8521, "\u2581\u5510\u4ee3": 8522, "\u2581\u7ec6\u81f4": 8523, "\u4e24\u5929": 8524, "\u2581\u539f\u5b50": 8525, "\u2581\u6843": 8526, "\u2581\u83e9\u8428": 8527, "\u2581\u7687\u5bb6": 8528, "\u258174": 8529, "\u2581\u53d1\u653e": 8530, "\u2581Be": 8531, "\u2581\u611f\u6069": 8532, "\u2581\u6982\u62ec": 8533, "\u548f": 8534, "\u2581320": 8535, "\u2581\u4e0d\u96be": 8536, "\u2581\u8111\u6d1e": 8537, "ner": 8538, "\u2581\u88ab\u8feb": 8539, "\u5438": 8540, "\u2581\u5e26\u5934": 8541, "\u2581\u7096": 8542, "\u80a4": 8543, "\u75be\u75c5": 8544, "60": 8545, "\u2581\u4ece\u4e2d": 8546, "\u2581\u4e24\u70b9": 8547, "\u2581\u59ff\u6001": 8548, "\u2581\u6d59": 8549, "\u25816000": 8550, "\u2581\u6539\u540d": 8551, "\u96c1": 8552, "\u7b1b": 8553, "\u2581\u52a0\u8f7d": 8554, "\u2581\u5eb7\u7199": 8555, "av": 8556, "\u53e3\u6c14": 8557, "\u9640": 8558, "\u96cd": 8559, "\u2581\u6708\u7ecf": 8560, "\u63d2": 8561, "\u7d2b": 8562, "\u2581\u8d44\u672c\u4e3b\u4e49": 8563, "\u60a0": 8564, "\u2581\u5c3d\u5feb": 8565, "\u2581\u53d9\u8ff0": 8566, "\u2581\u6709\u76ca": 8567, "\u2581\u89c2\u6d4b": 8568, "\u258183": 8569, "\u2581\u9759\u8109": 8570, "eng": 8571, "89": 8572, "\u2581\u5154": 8573, "\u2581\u6076\u9b54": 8574, "\u2581\u6c99\u53d1": 8575, "\u2581\u8bed\u6c14": 8576, "\u2581\u4fdd\u536b": 8577, "\u7b80": 8578, "\u2581\u5230\u6765": 8579, "\u4ec6": 8580, "\u2581\u9274\u522b": 8581, "\u5927\u5806": 8582, "\u2581\u540e\u4ee3": 8583, "\u2581\u5ac9\u5992": 8584, "\u2581\u5c0f\u513f": 8585, "\u2581\u4eba\u53bb": 8586, "\u2581\u542f\u53d1": 8587, "\u3093": 8588, "\u8fdd": 8589, "\u4f83": 8590, "\u2581\u6c28\u57fa": 8591, "\u4e2a\u6708": 8592, "\u2581Unit": 8593, "\u2581For": 8594, "\u2581\u6a59": 8595, "\u2581\u6df1\u539a": 8596, "\u2581\u8bba\u8bc1": 8597, "\u2581\u5e73\u884c": 8598, "\u2581\u7b2c\u5341\u516b": 8599, "\u80e1": 8600, "\u2581\u901a\u98ce": 8601, "\u2581\u4e00\u53cc": 8602, "\u683c\u5f0f": 8603, "\u2581\u66f9\u64cd": 8604, "\u2581\u6bcf\u4e00": 8605, "\u96c4\u539a": 8606, "\u55b7": 8607, "\u2581\u822a\u5929": 8608, "\u2581\u5d29": 8609, "\u2581\u4e1c\u5357\u4e9a": 8610, "\u6c7d\u8f66": 8611, "\u25815.5": 8612, "\u2581\u5c4f\u853d": 8613, "\u2581\u7535\u5f71\u9662": 8614, "\u2220": 8615, "\u2581\u5168\u529b": 8616, "\u2581\u6253\u8d25": 8617, "\u2581\u79d1\u6bd4": 8618, "\u2581\u6dc0\u7c89": 8619, "\u2581\u6838\u6843": 8620, "\u2581\u6c5f\u897f\u7701": 8621, "\u964b": 8622, "\u840d": 8623, "\u2581\u653e\u5047": 8624, "\u2581\u5c0f\u4e8e": 8625, "\u2581\u4e00\u4e2d": 8626, "\u0ca5": 8627, "\u2581\u70ed\u91cf": 8628, "\u2581\u57ab": 8629, "ance": 8630, "\u2581\u4fe1\u5ff5": 8631, "\u5c3f": 8632, "\u2581\u63c9": 8633, "\u91cd\u8981": 8634, "\u5c7f": 8635, "\u2581\u6709\u5bb3": 8636, "\u2581\u56db\u5341": 8637, "\u2581\u4f5c\u5f0a": 8638, "\u2581115": 8639, "\u7f34": 8640, "\u2581\u79e9\u5e8f": 8641, "\u2581\u4f18\u7f8e": 8642, "\u80c3": 8643, "\u2581\u5b58\u6b3e": 8644, "\u2581\u4ef0": 8645, "\u2581\u89d2\u843d": 8646, "me": 8647, "ay": 8648, "\u532a": 8649, "\u2581\u67d0\u67d0": 8650, "\u2581\u71ac": 8651, "\u2581\u4e8c\u5341\u5e74": 8652, "\u2581\u4fdd\u5b89": 8653, "\u2581\u6cb9\u753b": 8654, "\u2581\u77eb\u60c5": 8655, "\u2581\u7194": 8656, "\u2581\u53f3\u624b": 8657, "\u2581\u4e7e\u9686": 8658, "\u2581\u4f2f": 8659, "\u2581\u30ea": 8660, "\u500b": 8661, "5.0": 8662, "\u2581\u5267\u573a": 8663, "\u2581\u68d5": 8664, "\u2581\u67f4": 8665, "\u76fc": 8666, "\u7ea4\u7ef4": 8667, "di": 8668, "\u810a": 8669, "\u6548\u679c": 8670, "\u25816.3": 8671, "PA": 8672, "\u2581\u534f\u4f5c": 8673, "\u2581\u60f3\u8fc7": 8674, "\u6869": 8675, "\u2581\u5185\u8863": 8676, "\u2581\u7968\u623f": 8677, "\u2581Win": 8678, "\u2581\u7801\u5934": 8679, "\u2581\u5efa\u6750": 8680, "\u6f02\u4eae": 8681, "\u2581\u957f\u53d1": 8682, "\u2581\u5c71\u897f\u7701": 8683, "\u2581\u9884\u8b66": 8684, "\u2581\u5f00\u4e1a": 8685, "\u2581\u75b2\u52b3": 8686, "\u25810.3": 8687, "\u2581\u90ae\u7bb1": 8688, "\u2581\u7070\u8272": 8689, "\u2581\u5b66\u4e1a": 8690, "\u2581\u53ef\u8fbe": 8691, "-------------": 8692, "\u8425\u9500": 8693, "\u2581\u8865\u8d34": 8694, "\u2581\u5f81\u6536": 8695, "\u614e": 8696, "\u773c\u76ae": 8697, "\u2581\u540e\u536b": 8698, "\u2581\u7b2c\u4e8c\u767e": 8699, "\u2581\u50e7": 8700, "\u2581\u57fa\u7763": 8701, "\u95f7": 8702, "\u2581\u963f\u62c9\u4f2f": 8703, "\u2581\u7ecf\u9500": 8704, "\u6566": 8705, "\u800d": 8706, "\u5a9a": 8707, "lu": 8708, "\u6ee8": 8709, "\u2581\u901a\u8bdd": 8710, "\u2581\u4e00\u4e1d": 8711, "\u2581\u94a5\u5319": 8712, "\u2581\u820d\u4e0d\u5f97": 8713, "\u2581\u591a\u529f\u80fd": 8714, "\u2581\u6210\u578b": 8715, "\u7164": 8716, "\u2581\u592a\u5e73\u6d0b": 8717, "\u2581ID": 8718, "\u2581\u8bf8\u5982": 8719, "\u2581\u53d8\u52a8": 8720, "\u9a7e": 8721, "\u2581\u8116\u5b50": 8722, "\u4e30\u5bcc": 8723, "\u2581\u540d\u8bcd": 8724, "\u2581\u634f": 8725, "\u2581\u6a21\u677f": 8726, "\u640f": 8727, "80": 8728, "\u2581\u5341\u4e07": 8729, "\u2581\u8def\u8fb9": 8730, "\u2581\u6bd5": 8731, "\u2581\u6d17\u8111": 8732, "DS": 8733, "ao": 8734, "\u2581\u6267\u7740": 8735, "\u25811976": 8736, "\u2581\u7f8e\u89c2": 8737,
[...]
